<unk>	0
<s>	0
</s>	0
.	-2.62243
,	-3.42527
?	-3.98921
'	-4.01478
s	-4.06162
▁I	-4.36598
▁-	-4.36624
▁you	-4.58786
!	-4.66529
▁the	-4.68285
t	-4.75987
▁to	-4.86393
▁không	-4.90098
▁a	-4.99552
▁là	-4.99604
▁tôi	-5.0705
▁có	-5.17331
...	-5.18576
m	-5.39215
▁ta	-5.41832
▁anh	-5.43679
▁it	-5.46291
▁of	-5.46878
▁Tôi	-5.56105
▁của	-5.58385
▁You	-5.64782
▁đã	-5.6587
▁in	-5.68114
▁that	-5.68119
▁sẽ	-5.69137
▁me	-5.73052
▁đi	-5.73681
▁and	-5.7444
re	-5.7444
▁gì	-5.76481
▁is	-5.77407
▁một	-5.78172
n	-5.78917
▁đó	-5.80188
▁được	-5.9363
▁phải	-5.95835
▁làm	-5.96452
▁người	-5.9678
▁cho	-5.98131
▁này	-5.9862
▁rồi	-6.00152
▁và	-6.06382
▁Anh	-6.06672
▁	-6.08526
▁for	-6.08619
d	-6.10744
▁chúng	-6.11659
y	-6.12554
▁on	-6.13076
i	-6.13114
ed	-6.13995
▁thể	-6.15471
▁your	-6.15492
▁be	-6.16361
▁cô	-6.16503
▁this	-6.17427
▁nói	-6.17573
ing	-6.18233
▁biết	-6.18616
▁ở	-6.19244
▁đây	-6.19259
▁do	-6.20022
▁have	-6.21253
▁ra	-6.22169
▁con	-6.23314
▁với	-6.23683
▁we	-6.23725
ll	-6.25452
-	-6.27546
▁my	-6.2818
▁lại	-6.32388
▁not	-6.34628
▁was	-6.35201
▁know	-6.37019
▁sao	-6.38221
▁It	-6.38627
▁nó	-6.40474
▁em	-6.40703
▁Không	-6.41258
▁can	-6.42018
▁nào	-6.42098
▁are	-6.42703
▁ấy	-6.43856
▁thế	-6.44305
▁ông	-6.45221
▁with	-6.46286
▁What	-6.47094
▁đang	-6.48324
▁We	-6.49525
▁muốn	-6.50156
▁he	-6.50969
▁trong	-6.51489
▁để	-6.53055
▁mà	-6.53951
ng	-6.56376
▁don	-6.57377
▁what	-6.57842
▁như	-6.59594
o	-6.60943
▁cái	-6.61627
▁here	-6.62543
▁"	-6.63668
▁đâu	-6.64203
▁cậu	-6.65115
ve	-6.66957
▁The	-6.6734
▁And	-6.68036
c	-6.68198
er	-6.68336
▁He	-6.68814
▁out	-6.68946
▁vậy	-6.69244
a	-6.69831
▁Chúng	-6.7102
▁đến	-6.71336
▁cả	-6.71984
▁just	-6.72863
▁like	-6.72954
▁all	-6.73525
▁khi	-6.73975
▁những	-6.74165
▁get	-6.74633
▁him	-6.74776
▁về	-6.75624
▁up	-6.76283
▁No	-6.77413
▁thì	-6.77549
▁chuyện	-6.78892
▁thấy	-6.81376
▁go	-6.83787
▁right	-6.85019
▁nghĩ	-6.85233
▁bị	-6.85962
▁about	-6.87154
▁cũng	-6.87458
▁Có	-6.87604
▁vào	-6.88083
▁That	-6.90848
▁chỉ	-6.9116
▁Oh	-6.91742
▁đấy	-6.92044
▁giờ	-6.93075
▁A	-6.93462
▁there	-6.93481
p	-6.9437
▁one	-6.94522
▁no	-6.96151
:	-6.96229
▁còn	-6.97144
▁họ	-6.97231
e	-6.97467
▁so	-6.97715
g	-6.98405
▁thôi	-6.99344
u	-6.99581
▁1	-6.99591
▁Cô	-6.99779
▁Em	-6.99799
▁Và	-7.00535
▁got	-7.00565
▁mình	-7.00684
▁cần	-7.00928
▁nữa	-7.0098
▁at	-7.01274
▁her	-7.02134
▁want	-7.04348
▁việc	-7.04781
▁will	-7.07215
▁they	-7.09552
▁các	-7.1104
▁C	-7.11916
▁ai	-7.12071
▁chứ	-7.12227
▁think	-7.13219
▁an	-7.13983
▁rất	-7.14039
▁Nhưng	-7.14728
▁tới	-7.15865
▁but	-7.16462
ly	-7.16824
▁But	-7.17332
▁now	-7.19453
▁điều	-7.19673
▁sự	-7.19944
▁So	-7.20392
▁à	-7.21317
▁hắn	-7.21891
▁nhà	-7.22272
"	-7.22848
▁vì	-7.23188
▁S	-7.23744
▁see	-7.23963
▁back	-7.24189
▁if	-7.24595
r	-7.24977
▁thật	-7.24988
▁from	-7.25021
▁thứ	-7.25417
▁us	-7.26794
▁chưa	-7.27523
▁Ông	-7.28444
▁hơn	-7.28935
▁his	-7.29646
▁gonna	-7.29823
▁lên	-7.3073
▁bạn	-7.31646
▁Ta	-7.32007
▁nhưng	-7.32906
▁Well	-7.33299
▁từ	-7.33557
▁Con	-7.33653
h	-7.33932
▁she	-7.34806
▁tìm	-7.34818
▁This	-7.3614
▁going	-7.36252
▁Yeah	-7.36536
▁đầu	-7.36621
▁them	-7.36854
▁s	-7.37171
▁time	-7.37644
in	-7.37733
▁nên	-7.38828
▁Cậu	-7.39172
or	-7.39714
b	-7.39912
▁tin	-7.40388
▁need	-7.41192
▁They	-7.41562
▁Nó	-7.41766
▁Hey	-7.42304
al	-7.42768
▁as	-7.43204
▁chết	-7.43705
▁man	-7.43715
▁quá	-7.44519
l	-7.45132
▁♪	-7.45159
▁did	-7.45684
▁good	-7.4704
le	-7.4719
▁B	-7.47549
▁How	-7.4869
▁ơn	-7.49807
▁nhiều	-7.50083
▁l	-7.50524
▁been	-7.50798
▁who	-7.51001
▁Đó	-7.51704
▁would	-7.51723
▁c	-7.51901
▁were	-7.52054
▁nghe	-7.52183
▁She	-7.52947
▁nhất	-7.53708
▁mọi	-7.53852
▁take	-7.5503
▁trước	-7.55103
▁Nếu	-7.56077
▁Do	-7.56502
▁trên	-7.56882
▁our	-7.57187
▁lỗi	-7.57716
▁bao	-7.58027
▁come	-7.58215
▁Vậy	-7.58317
ch	-7.58735
▁down	-7.58875
▁tốt	-7.58977
▁way	-7.59686
▁had	-7.60628
▁công	-7.61006
▁khác	-7.6127
▁some	-7.61841
▁qua	-7.62143
▁T	-7.62325
▁nếu	-7.6272
▁or	-7.63017
▁say	-7.63824
▁hay	-7.63991
▁thích	-7.64995
▁Don	-7.65358
▁thành	-7.65582
▁If	-7.6696
▁Come	-7.66964
▁mày	-7.67013
▁There	-7.67014
▁yêu	-7.67338
▁Được	-7.67699
▁Okay	-7.68583
▁could	-7.6861
th	-7.68862
▁cùng	-7.68882
▁cách	-7.68977
I	-7.69288
▁đúng	-7.69784
ra	-7.69977
▁sống	-7.7006
▁by	-7.70797
▁gặp	-7.70864
▁theo	-7.70988
▁when	-7.71435
▁tên	-7.71439
▁mẹ	-7.71509
▁didn	-7.71639
▁ngày	-7.71648
A	-7.72293
▁lắm	-7.72612
▁tell	-7.7293
▁how	-7.7385
▁mới	-7.74328
)	-7.74827
▁has	-7.75118
▁bà	-7.75421
▁...	-7.75738
▁more	-7.75808
es	-7.75975
▁quan	-7.76162
▁giết	-7.76217
▁something	-7.76287
▁xem	-7.76436
▁Sao	-7.76886
▁make	-7.76964
▁vẫn	-7.77152
▁Một	-7.77481
▁ý	-7.77728
▁bắt	-7.7815
S	-7.78524
k	-7.79138
▁hết	-7.79644
▁Đừng	-7.79758
▁All	-7.79911
▁b	-7.79976
▁over	-7.80917
▁sau	-7.80946
▁too	-7.81125
▁Đây	-7.81381
▁ngay	-7.81582
▁gọi	-7.81984
▁rằng	-7.82276
▁t	-7.83247
▁Let	-7.8328
▁off	-7.83358
ri	-7.83476
▁Why	-7.83495
▁giúp	-7.84341
▁My	-7.84791
▁D	-7.85439
▁M	-7.85536
▁ăn	-7.85685
▁lúc	-7.8582
an	-7.85867
E	-7.86048
▁(	-7.86052
▁tự	-7.86392
▁never	-7.86551
▁let	-7.86669
▁bảo	-7.8671
la	-7.87628
▁Họ	-7.87971
▁tay	-7.88229
▁lấy	-7.89247
en	-7.89477
T	-7.9033
▁little	-7.90448
▁hiểu	-7.90475
▁2	-7.9079
▁xin	-7.90918
▁bố	-7.90988
▁mất	-7.91227
▁really	-7.91526
▁should	-7.9167
▁hả	-7.91869
▁tao	-7.92005
▁vụ	-7.92121
▁cứ	-7.924
el	-7.92858
▁Xin	-7.92899
▁L	-7.92957
▁look	-7.93036
▁nhận	-7.93089
▁people	-7.93526
▁khỏi	-7.93554
▁xe	-7.9372
▁Hãy	-7.93958
▁bỏ	-7.9469
▁mean	-7.94721
▁Yes	-7.95231
▁nay	-7.95451
▁Now	-7.95777
▁cảm	-7.96028
▁cuộc	-7.96124
▁nhân	-7.96721
C	-7.96836
ar	-7.96954
▁only	-7.97305
▁nhé	-7.97462
▁lần	-7.97682
▁n	-7.97746
nh	-7.98159
▁find	-7.98212
▁re	-7.98278
▁định	-7.98672
▁năm	-7.98675
▁hai	-7.98682
▁đưa	-7.98763
▁tớ	-7.99096
▁d	-7.99491
▁Just	-7.99518
▁cháu	-7.99709
▁nhìn	-8.00012
▁Where	-8.00077
▁bé	-8.0023
▁said	-8.00257
▁G	-8.00427
▁love	-8.01081
▁tiền	-8.01357
▁tất	-8.01887
▁thing	-8.01982
▁v	-8.0229
▁H	-8.02389
▁help	-8.02421
ion	-8.02562
▁K	-8.02622
▁am	-8.02648
▁r	-8.04002
▁Mr	-8.04195
▁chính	-8.04569
▁Get	-8.04608
us	-8.04658
▁nhau	-8.05031
▁where	-8.05124
▁Làm	-8.05404
▁số	-8.05476
▁okay	-8.05834
▁gái	-8.05838
▁Look	-8.06099
▁Go	-8.06371
."	-8.06491
▁trở	-8.06808
▁đường	-8.07424
ro	-8.07464
▁chắc	-8.0759
▁sát	-8.07601
▁then	-8.07975
▁thời	-8.08036
▁gia	-8.08054
▁Cái	-8.08662
▁động	-8.08905
il	-8.09076
▁Are	-8.09339
ne	-8.09383
ic	-8.09581
▁mặt	-8.09667
▁cha	-8.0969
▁tại	-8.10017
▁lời	-8.10108
▁bọn	-8.10404
▁lo	-8.10557
▁any	-8.10664
▁xuống	-8.10724
▁chút	-8.1112
▁luôn	-8.11504
▁doing	-8.11904
▁ngoài	-8.12051
▁Who	-8.12416
▁Hắn	-8.12758
▁very	-8.12806
▁two	-8.1293
▁Chỉ	-8.13036
▁ngài	-8.13219
▁ch	-8.13756
▁give	-8.1406
▁much	-8.1426
▁th	-8.14282
▁nhiên	-8.14316
li	-8.14504
▁into	-8.1482
▁từng	-8.14953
▁toàn	-8.15178
▁hàng	-8.15523
on	-8.161
▁cơ	-8.16336
▁m	-8.16549
▁sorry	-8.16646
▁O	-8.16708
▁Chào	-8.16817
M	-8.17119
▁hãy	-8.17442
▁nơi	-8.17519
▁Đi	-8.17718
▁N	-8.1789
lo	-8.17966
ce	-8.17989
▁still	-8.18058
▁Phải	-8.18114
▁God	-8.18808
▁lý	-8.18849
▁gian	-8.19112
▁kẻ	-8.1912
▁E	-8.19219
▁why	-8.19321
▁Mẹ	-8.19345
▁life	-8.19524
ta	-8.19773
▁sĩ	-8.19938
▁than	-8.205
▁vị	-8.20624
▁phòng	-8.20765
▁học	-8.2096
▁lẽ	-8.21202
▁Để	-8.21202
▁3	-8.21483
▁even	-8.21486
▁hỏi	-8.21551
▁?	-8.2188
▁work	-8.21886
▁g	-8.22008
▁Các	-8.22334
▁Your	-8.22769
▁To	-8.2286
▁trai	-8.22874
▁bất	-8.2298
▁đồ	-8.23193
▁day	-8.234
▁In	-8.23576
▁tra	-8.23748
▁chỗ	-8.24224
▁đề	-8.24607
▁cố	-8.24663
▁Not	-8.24781
▁Cha	-8.25118
▁call	-8.25175
D	-8.25181
▁tâm	-8.25746
▁V	-8.25792
▁name	-8.26086
▁bằng	-8.26132
▁nhớ	-8.26277
▁đều	-8.26499
▁trả	-8.26835
▁before	-8.2696
▁xảy	-8.27307
man	-8.27581
▁again	-8.27803
▁de	-8.27846
▁their	-8.28041
▁máy	-8.28416
▁bên	-8.2842
▁Th	-8.28526
--	-8.28695
▁Này	-8.29202
▁mấy	-8.29253
▁Can	-8.29338
▁Chúa	-8.29357
▁home	-8.29405
▁h	-8.2952
et	-8.29581
▁sure	-8.29718
▁vui	-8.30253
▁P	-8.30325
▁these	-8.30367
▁thực	-8.30686
▁!	-8.31084
▁kia	-8.31105
H	-8.31136
▁away	-8.31205
▁chơi	-8.31243
▁Thật	-8.31412
▁anything	-8.31612
▁may	-8.31617
▁tình	-8.31696
▁must	-8.31734
▁chiến	-8.31739
▁first	-8.31862
▁other	-8.3233
▁nh	-8.32395
▁bộ	-8.32455
se	-8.32481
ur	-8.32785
▁đánh	-8.32799
▁ngươi	-8.3291
▁talk	-8.33044
▁Ba	-8.33358
ie	-8.33631
▁Còn	-8.33732
▁Tớ	-8.33897
▁Mày	-8.34096
▁R	-8.34511
▁long	-8.34569
▁sinh	-8.34599
▁đồng	-8.34694
▁vài	-8.34769
▁quay	-8.34797
▁thằng	-8.34826
▁hành	-8.34916
ers	-8.34923
▁ơi	-8.34945
▁night	-8.35196
P	-8.35504
▁đừng	-8.35541
B	-8.35568
▁Good	-8.35869
▁[	-8.363
▁thought	-8.36333
▁won	-8.36478
▁nước	-8.36606
▁vô	-8.36712
▁đ	-8.36739
O	-8.36915
ia	-8.36933
▁tiếp	-8.37019
N	-8.37192
▁ba	-8.37316
▁'	-8.3735
it	-8.37635
▁ổn	-8.37759
▁place	-8.37772
▁keep	-8.38165
▁Người	-8.38684
▁Đ	-8.38905
▁kill	-8.39049
L	-8.39079
ation	-8.39149
to	-8.39348
na	-8.39775
▁Thế	-8.39921
ter	-8.40099
▁Ma	-8.40292
▁Đúng	-8.40392
▁Ai	-8.40712
▁giới	-8.4073
▁because	-8.40901
▁kết	-8.41025
▁giống	-8.41186
▁cứu	-8.41652
▁last	-8.41679
▁well	-8.41865
▁told	-8.41934
▁viên	-8.42295
▁đẹp	-8.42383
▁thưa	-8.42523
▁hiện	-8.42548
ma	-8.42681
▁vừa	-8.42801
▁ma	-8.42862
▁Cho	-8.43211
ry	-8.43334
▁tưởng	-8.43341
▁sir	-8.43501
▁guy	-8.43525
▁Red	-8.4355
▁Please	-8.43853
de	-8.44151
▁chẳng	-8.44323
▁câu	-8.44452
▁better	-8.45052
▁Tất	-8.4524
▁báo	-8.45402
▁trọng	-8.45497
ck	-8.4555
R	-8.45681
is	-8.4588
▁Ra	-8.45901
▁hình	-8.46159
▁cảnh	-8.4617
▁please	-8.46284
me	-8.46319
▁Vì	-8.46366
▁F	-8.46372
▁believe	-8.4669
est	-8.46744
▁tối	-8.47135
▁sợ	-8.47319
▁Re	-8.47435
w	-8.47556
▁ever	-8.47638
▁Giờ	-8.47793
f	-8.47868
▁Thank	-8.48011
▁ko	-8.48289
▁put	-8.48556
▁Tao	-8.49012
▁lớn	-8.49237
▁Khi	-8.49381
▁La	-8.49481
▁chú	-8.49506
▁Bố	-8.49526
▁years	-8.49551
▁vẻ	-8.50019
▁around	-8.50168
▁giữ	-8.50439
▁family	-8.51014
x	-8.51397
▁those	-8.51426
▁đáng	-8.51447
▁car	-8.52028
▁When	-8.5237
z	-8.5263
▁Hi	-8.52749
ment	-8.52829
▁thương	-8.53247
▁cửa	-8.53482
▁di	-8.53741
▁chị	-8.53986
▁dead	-8.54004
▁thường	-8.54097
pe	-8.54178
▁old	-8.54255
▁lâu	-8.54283
▁dùng	-8.54284
▁giải	-8.54802
▁guys	-8.54885
▁nothing	-8.55245
un	-8.55536
ine	-8.55643
ton	-8.55652
▁things	-8.55675
▁Nghe	-8.5575
▁always	-8.55771
te	-8.55843
▁For	-8.5589
▁Là	-8.5592
ul	-8.56138
▁sáng	-8.56152
tion	-8.56404
▁tr	-8.56412
▁bây	-8.56476
▁đổi	-8.56526
▁hợp	-8.56622
▁leave	-8.56622
vi	-8.56763
ke	-8.56766
▁Vâng	-8.56793
▁tuyệt	-8.57184
id	-8.57351
▁after	-8.57373
▁Be	-8.57557
▁feel	-8.57689
▁vấn	-8.57741
son	-8.57846
▁nhỏ	-8.5792
▁thông	-8.58096
à	-8.58138
▁kind	-8.58383
▁cổ	-8.58396
▁tiếng	-8.58397
▁made	-8.58431
▁bản	-8.58569
▁Mi	-8.58694
▁through	-8.58891
▁2006	-8.58893
▁W	-8.58947
▁father	-8.59057
am	-8.5908
▁Bà	-8.59081
▁Những	-8.59089
▁own	-8.59249
▁hear	-8.59567
▁Uh	-8.5965
▁un	-8.59951
▁done	-8.59973
ent	-8.60152
▁doesn	-8.60577
▁thay	-8.60787
▁stop	-8.60912
▁đủ	-8.60967
▁biệt	-8.61193
▁cầu	-8.61222
▁phụ	-8.6143
▁great	-8.61444
▁xác	-8.61556
ate	-8.61577
▁world	-8.61689
▁List	-8.61725
▁Then	-8.62112
▁đời	-8.62229
▁Did	-8.62345
▁thân	-8.62432
▁coming	-8.62678
▁Ch	-8.62807
▁everything	-8.62819
▁Species	-8.62876
▁Mọi	-8.62933
▁Me	-8.62964
▁Ôi	-8.63258
ha	-8.63295
▁care	-8.63363
▁lot	-8.63587
▁IUCN	-8.63618
▁fucking	-8.6362
da	-8.63688
▁Threatened	-8.63847
▁*	-8.63891
]	-8.64315
▁10	-8.64347
▁ngủ	-8.64428
▁Tr	-8.64623
▁bay	-8.64978
▁Chuyện	-8.65293
▁bad	-8.65492
▁new	-8.65693
▁money	-8.65705
▁left	-8.65938
▁show	-8.65968
▁does	-8.66058
▁ng	-8.66144
▁understand	-8.66553
▁bắn	-8.66592
▁vệ	-8.66635
▁Tại	-8.6664
▁cuối	-8.66672
▁tiên	-8.66854
▁head	-8.66947
▁Thôi	-8.67063
▁thêm	-8.67264
▁tội	-8.673
▁5	-8.674
co	-8.67777
▁điện	-8.68163
▁thần	-8.68256
▁ảnh	-8.68314
▁nhanh	-8.68592
▁đại	-8.68704
▁mang	-8.68967
▁hell	-8.69153
▁ca	-8.69185
▁De	-8.69191
▁trẻ	-8.69403
ting	-8.69406
▁girl	-8.69573
▁tính	-8.69575
▁bình	-8.69669
▁đứa	-8.69943
▁xa	-8.70091
▁shit	-8.70327
▁phát	-8.70483
ty	-8.70523
▁Chắc	-8.70623
▁khó	-8.70627
ir	-8.70772
▁stay	-8.70911
▁Cháu	-8.71016
▁giá	-8.71933
ver	-8.71947
▁chọn	-8.72039
▁nhỉ	-8.72179
sh	-8.72231
▁19	-8.7235
v	-8.72477
▁big	-8.72708
▁nghĩa	-8.72864
▁Here	-8.72972
▁son	-8.73316
▁trường	-8.73583
em	-8.73728
▁chạy	-8.73831
do	-8.73843
G	-8.73896
▁liên	-8.73939
ol	-8.74086
▁vọng	-8.74117
▁đêm	-8.74283
ity	-8.74321
▁hoàn	-8.74552
▁hội	-8.74939
▁wrong	-8.75012
▁might	-8.75117
▁enough	-8.75206
▁năng	-8.75282
be	-8.75424
▁chịu	-8.75446
▁Ở	-8.7566
▁Nói	-8.75678
▁course	-8.76077
▁real	-8.76193
▁quyết	-8.76331
▁chiếc	-8.76372
▁wanted	-8.76387
▁every	-8.76449
▁đối	-8.76653
▁rõ	-8.76669
▁uh	-8.7685
▁p	-8.76919
▁súng	-8.77202
▁Maybe	-8.77294
▁friend	-8.77326
▁đàn	-8.77339
▁hôm	-8.77446
▁nữ	-8.77892
▁đội	-8.77912
▁ạ	-8.78016
▁happened	-8.7849
▁Bọn	-8.78507
▁else	-8.78644
ist	-8.78986
▁wait	-8.79176
▁found	-8.79177
▁e	-8.79247
▁tập	-8.79255
▁came	-8.79592
ster	-8.79777
*	-8.80057
á	-8.80377
▁quân	-8.80391
▁X	-8.80465
▁men	-8.8081
▁Ý	-8.80831
▁bởi	-8.80902
▁One	-8.8091
▁end	-8.81037
▁chứng	-8.81106
▁bệnh	-8.81307
▁4	-8.81336
▁đình	-8.81339
▁chờ	-8.81527
▁talking	-8.81534
▁dưới	-8.8158
▁mo	-8.81717
▁la	-8.81805
▁New	-8.81898
▁fine	-8.81978
ni	-8.82035
▁Or	-8.8231
▁điên	-8.82578
bo	-8.82801
▁move	-8.82837
▁someone	-8.83055
▁kh	-8.83072
▁being	-8.83278
▁die	-8.8353
▁looking	-8.83648
▁gần	-8.83665
no	-8.83721
▁k	-8.83761
▁house	-8.84143
at	-8.84263
▁yourself	-8.84323
▁dụng	-8.84527
age	-8.84604
▁J	-8.84699
per	-8.84757
▁Tốt	-8.84767
▁John	-8.84782
▁Co	-8.84789
ies	-8.85105
▁Ừ	-8.85224
▁remember	-8.85279
▁đất	-8.85325
▁An	-8.85359
▁Nhìn	-8.85528
▁three	-8.856
able	-8.85623
▁lòng	-8.85806
ba	-8.8582
ph	-8.8588
▁x	-8.85988
▁kiếm	-8.86029
▁tử	-8.86148
▁Ro	-8.862
▁cao	-8.86215
▁Cảm	-8.86684
um	-8.86705
▁run	-8.86943
▁mind	-8.87154
▁chủ	-8.87192
▁fuck	-8.87254
U	-8.87259
go	-8.8731
▁another	-8.874
▁boy	-8.87474
▁Because	-8.87514
lu	-8.87523
K	-8.87581
▁ask	-8.87825
▁Take	-8.87825
▁trying	-8.87865
▁chuyển	-8.87984
▁Bây	-8.8812
mo	-8.8819
▁sư	-8.88433
▁job	-8.88534
▁cánh	-8.88712
▁phút	-8.8879
▁sắp	-8.88802
▁getting	-8.88951
▁sàng	-8.89246
▁yeah	-8.89383
▁đấu	-8.89501
ber	-8.89993
▁thức	-8.90098
ian	-8.90487
ci	-8.90577
▁Rồi	-8.9058
mp	-8.90606
ad	-8.90628
▁khá	-8.90679
▁Wait	-8.90781
▁As	-8.90809
▁wanna	-8.90875
va	-8.90906
▁mạnh	-8.90995
▁same	-8.91039
▁bác	-8.91065
▁many	-8.9109
▁vật	-8.91119
▁co	-8.91311
▁Ồ	-8.91334
▁quái	-8.91389
▁mắt	-8.91412
▁chắn	-8.9145
▁ư	-8.91479
▁trò	-8.91517
▁killed	-8.91687
▁use	-8.91779
▁st	-8.91799
▁thử	-8.92175
▁thống	-8.92238
▁trí	-8.92358
▁hard	-8.92419
▁brother	-8.92545
▁À	-8.92603
▁uống	-8.92735
▁gotta	-8.92888
▁isn	-8.92973
▁saw	-8.93035
▁phá	-8.93103
▁trưởng	-8.93353
▁phố	-8.93386
ard	-8.93523
▁baby	-8.93752
ư	-8.93934
▁Cứ	-8.9395
▁kiểm	-8.94241
▁kế	-8.94368
▁sai	-8.94711
▁best	-8.94992
▁phía	-8.94999
▁ngồi	-8.95065
▁trời	-8.95224
▁loại	-8.95304
▁thuốc	-8.95339
▁kể	-8.95386
▁cá	-8.95672
as	-8.95716
▁live	-8.96028
▁phần	-8.96249
▁Rất	-8.96416
▁20	-8.96571
▁idea	-8.96805
▁6	-8.96902
up	-8.97079
3	-8.97249
í	-8.97591
▁hand	-8.97722
▁sẵn	-8.97765
▁Have	-8.97985
ả	-8.98087
▁ít	-8.98251
mi	-8.98444
▁điểm	-8.98494
▁hơi	-8.98744
▁dễ	-8.98745
▁duy	-8.9882
▁mừng	-8.9883
▁wasn	-8.98843
▁Na	-8.98958
▁xong	-8.98986
ê	-8.99033
▁da	-8.99149
▁nice	-8.9915
▁po	-8.99228
▁ph	-8.9962
▁qu	-8.99635
▁seen	-8.99713
▁Cám	-8.99827
▁Of	-8.99846
▁biến	-8.99949
▁next	-9.00006
▁quả	-9.00119
▁St	-9.00161
▁Le	-9.00266
▁tệ	-9.00334
▁vi	-9.00334
▁chào	-9.00378
▁already	-9.00419
di	-9.00431
ant	-9.0049
▁Trong	-9.0061
▁kìa	-9.00812
▁hi	-9.00844
▁khu	-9.00919
▁tài	-9.00958
ca	-9.01108
▁chí	-9.01216
▁mai	-9.01272
▁together	-9.01292
▁Li	-9.01363
der	-9.01494
▁knew	-9.01542
▁chó	-9.01585
▁phép	-9.01586
ạ	-9.01729
▁problem	-9.02005
▁minh	-9.02067
▁quyền	-9.0209
▁thủ	-9.02139
▁mua	-9.02293
▁hệ	-9.02323
▁today	-9.02507
▁heard	-9.02551
▁room	-9.02632
▁khốn	-9.02637
▁Right	-9.02901
▁start	-9.02985
ệ	-9.03033
F	-9.03083
▁đứng	-9.03103
▁thư	-9.03175
▁mother	-9.03239
ì	-9.03401
▁hạ	-9.03416
▁mở	-9.03505
é	-9.03506
ance	-9.03675
▁đau	-9.03784
▁thú	-9.03787
▁lực	-9.03807
▁chân	-9.03844
nd	-9.03939
▁tục	-9.0399
▁vợ	-9.04019
▁OK	-9.04162
▁Da	-9.04163
▁#	-9.04342
▁Cerambycidae	-9.04343
▁trung	-9.04352
▁U	-9.0472
▁Điều	-9.04865
▁try	-9.04901
▁tuần	-9.04908
▁độ	-9.05019
ú	-9.05024
▁ex	-9.05057
▁most	-9.05096
▁Ha	-9.05117
▁sức	-9.0534
ó	-9.05501
▁gã	-9.0557
V	-9.05808
▁dù	-9.05917
▁Gi	-9.05948
▁turn	-9.06174
ge	-9.06203
▁kỳ	-9.06213
▁quý	-9.06215
▁Sa	-9.06382
▁tạo	-9.06505
▁yên	-9.06527
▁Mình	-9.06563
▁went	-9.06613
▁quên	-9.06615
▁Al	-9.0681
▁whole	-9.06879
Y	-9.06881
▁Dr	-9.06927
▁Ngài	-9.07004
▁Su	-9.07096
ted	-9.07183
▁hiệu	-9.07184
▁dân	-9.07245
▁thoại	-9.0727
▁Mar	-9.07289
▁ago	-9.07313
▁Ho	-9.07452
ga	-9.07558
▁Sorry	-9.07605
▁phục	-9.07646
▁trông	-9.0768
▁diễn	-9.07714
▁nhiêu	-9.07759
▁took	-9.08123
▁Nh	-9.08132
2	-9.08186
▁face	-9.08288
ô	-9.08311
▁matter	-9.08396
▁wife	-9.08475
▁hôn	-9.08486
▁nổi	-9.08564
▁wouldn	-9.08569
▁Pa	-9.08646
sa	-9.08662
les	-9.0894
▁Như	-9.09005
▁sách	-9.09254
▁gone	-9.09301
▁coi	-9.09332
▁which	-9.09465
▁Tell	-9.09624
▁See	-9.09693
▁part	-9.09784
▁khí	-9.09838
▁fight	-9.09854
▁đợi	-9.09919
▁bài	-9.09965
▁hoặc	-9.1001
▁đặt	-9.1001
ow	-9.10016
op	-9.10058
ka	-9.10192
▁khách	-9.10268
▁ready	-9.10282
▁Ng	-9.10425
▁guess	-9.10467
▁tháng	-9.10473
▁Hay	-9.10814
▁Ngươi	-9.10833
▁pay	-9.11048
▁Mo	-9.11083
less	-9.11117
▁Đã	-9.11133
▁open	-9.11161
▁y	-9.11186
▁thúc	-9.11241
ive	-9.11267
ki	-9.11289
▁dẫn	-9.11802
▁lost	-9.11844
▁hurt	-9.11899
▁meet	-9.11932
▁woman	-9.12226
▁kinh	-9.12279
▁Jack	-9.12368
▁trình	-9.12505
▁yet	-9.12687
▁Se	-9.12796
▁Ga	-9.12961
▁war	-9.13121
▁đá	-9.13231
▁tàu	-9.1325
▁khiến	-9.13451
▁kid	-9.13576
▁pro	-9.13672
▁Tên	-9.1371
▁hope	-9.14
▁máu	-9.14117
▁Hai	-9.14131
▁phạm	-9.14148
▁trái	-9.14324
▁hiểm	-9.14433
tic	-9.14438
▁Jo	-9.14599
ec	-9.14668
▁door	-9.14714
00	-9.14717
ey	-9.14798
▁Give	-9.14809
▁Frank	-9.14983
▁without	-9.15045
▁mạng	-9.15067
ley	-9.15145
▁tiệt	-9.1526
▁deal	-9.15437
▁Chị	-9.15452
▁đơn	-9.15631
▁maybe	-9.15668
▁buổi	-9.15735
▁danh	-9.15782
▁Hello	-9.15785
▁vũ	-9.15832
ron	-9.15908
▁pretty	-9.16211
ling	-9.16442
▁7	-9.16538
▁bring	-9.16564
▁used	-9.16705
ner	-9.16804
▁bàn	-9.16813
▁Man	-9.16832
▁under	-9.17014
▁Di	-9.17024
▁xuất	-9.17334
1	-9.17341
▁Đại	-9.17387
▁tuổi	-9.17437
ish	-9.17507
▁alone	-9.17531
▁gi	-9.17693
#244;	-9.17773
▁tranh	-9.17819
▁Dad	-9.18042
▁xấu	-9.18076
▁đặc	-9.18168
▁tượng	-9.18176
▁Sau	-9.18272
▁áo	-9.1832
▁Po	-9.18398
▁Đưa	-9.1842
rt	-9.18479
▁few	-9.18591
▁bán	-9.18692
im	-9.18745
▁tiêu	-9.18769
and	-9.18785
▁ho	-9.18843
mon	-9.19034
▁loài	-9.19071
▁lạ	-9.19152
▁days	-9.19199
ness	-9.19208
▁play	-9.19401
▁cấp	-9.19432
▁morning	-9.19511
▁myself	-9.19712
▁Lo	-9.19929
▁mật	-9.20339
▁lạc	-9.20474
▁thắng	-9.20721
W	-9.20815
▁bit	-9.20951
bi	-9.2099
▁called	-9.21124
he	-9.2115
▁tù	-9.21178
ful	-9.21389
▁heart	-9.21468
▁thoát	-9.21484
und	-9.21535
▁Will	-9.22013
▁Ca	-9.22073
▁Like	-9.22174
▁giả	-9.22186
▁luật	-9.22205
ơ	-9.22369
ff	-9.22608
ho	-9.22951
▁soon	-9.22959
▁rest	-9.23049
▁Mu	-9.23084
▁gây	-9.23203
▁Ar	-9.23347
▁ass	-9.23621
ã	-9.23748
ac	-9.2386
#224;	-9.24072
▁mặc	-9.24124
▁hy	-9.24159
▁tĩnh	-9.24176
▁Bo	-9.2422
▁xử	-9.2422
▁hoạch	-9.24339
ous	-9.2441
▁both	-9.2458
▁Chú	-9.24655
▁tiến	-9.24876
▁far	-9.25169
▁while	-9.25195
▁dối	-9.25244
▁late	-9.25365
▁drink	-9.25497
ach	-9.25739
▁nhiệm	-9.25923
ể	-9.25967
▁li	-9.26102
▁tu	-9.2615
▁đôi	-9.26361
▁At	-9.26442
▁cây	-9.26444
ah	-9.26457
▁Sam	-9.26495
▁Bạn	-9.26728
▁hit	-9.26893
▁shot	-9.27081
▁point	-9.2713
▁đoán	-9.27159
▁Stop	-9.27247
▁safe	-9.27283
▁once	-9.27381
▁Từ	-9.27416
hi	-9.27498
▁Vi	-9.27536
os	-9.27638
▁Ja	-9.2775
▁anyone	-9.27782
▁high	-9.27873
▁dis	-9.27887
▁thiết	-9.27928
▁rời	-9.27932
▁thu	-9.27955
▁phone	-9.27985
▁chàng	-9.28028
▁huh	-9.28101
▁sử	-9.28207
pp	-9.28249
che	-9.28613
▁đô	-9.28676
▁hại	-9.28694
▁Ah	-9.28702
▁tấn	-9.2914
▁Sẽ	-9.29155
▁saying	-9.292
▁vời	-9.29234
▁viết	-9.29467
pi	-9.2972
ris	-9.29751
▁water	-9.29882
▁tonight	-9.29917
ổ	-9.29979
▁trị	-9.3014
▁Ph	-9.30184
▁mỗi	-9.30301
ving	-9.30308
▁tinh	-9.30578
dy	-9.30615
▁minutes	-9.30797
▁lệnh	-9.30816
▁già	-9.30928
▁close	-9.30941
▁Bu	-9.31001
▁sớm	-9.31018
▁business	-9.31074
▁York	-9.31078
tal	-9.31185
▁ổng	-9.31219
▁case	-9.31386
▁plan	-9.31426
ger	-9.31474
▁lập	-9.31558
bu	-9.31727
▁Fa	-9.31754
▁8	-9.31768
%	-9.31809
▁until	-9.31865
▁thị	-9.31885
▁friends	-9.31922
▁thi	-9.31958
ee	-9.32123
▁hứa	-9.32318
▁listen	-9.32357
/	-9.32438
▁true	-9.32444
▁worry	-9.32491
▁ngu	-9.32655
▁Ju	-9.32815
▁gun	-9.32839
▁rối	-9.3296
▁tế	-9.33099
▁side	-9.33155
▁mục	-9.33157
▁tá	-9.33222
▁change	-9.33358
hẳng	-9.33403
ise	-9.33406
▁Hu	-9.335
▁check	-9.33539
by	-9.33901
▁bi	-9.34054
▁Listen	-9.34059
▁sa	-9.34089
▁chance	-9.3421
▁such	-9.34254
▁Miss	-9.34284
▁đọc	-9.34397
▁trust	-9.34449
▁dự	-9.34506
▁second	-9.34535
▁địa	-9.34622
▁liệu	-9.34631
▁ha	-9.34636
▁bóng	-9.34652
gu	-9.35081
ary	-9.35138
▁Sir	-9.35178
▁dậy	-9.35206
▁Ka	-9.35277
▁fire	-9.35291
▁Ne	-9.35446
▁actually	-9.355
▁cứng	-9.35674
▁nguy	-9.35762
▁walk	-9.35781
▁giao	-9.35964
▁death	-9.35981
our	-9.35991
êu	-9.35998
▁pháp	-9.36176
▁nhóc	-9.36276
▁&	-9.36331
min	-9.36429
▁clear	-9.36445
▁yes	-9.36477
▁giữa	-9.36676
▁khả	-9.36737
▁bar	-9.36776
▁trốn	-9.36828
▁since	-9.37054
▁light	-9.37065
▁tác	-9.37117
▁crazy	-9.37159
▁dấu	-9.37239
▁gave	-9.37271
▁haven	-9.37534
po	-9.37795
▁hề	-9.37901
▁inside	-9.37956
▁nghiệp	-9.37999
▁hold	-9.38043
▁Gì	-9.38107
▁ngốc	-9.3819
▁Pi	-9.38257
▁nghỉ	-9.38303
qu	-9.38359
▁bí	-9.38405
wa	-9.38454
▁ngon	-9.38608
▁thuật	-9.38612
▁vòng	-9.38677
▁happen	-9.38715
ler	-9.38962
▁nạn	-9.38979
▁game	-9.39055
▁Kh	-9.39205
▁word	-9.39313
▁couldn	-9.3941
▁giỏi	-9.39456
▁băng	-9.3973
ut	-9.39732
▁watch	-9.39744
▁school	-9.39762
▁eat	-9.39802
▁ain	-9.3985
▁hands	-9.39853
ị	-9.39945
▁phản	-9.39946
▁chuẩn	-9.40069
▁f	-9.40165
▁Ko	-9.40264
▁hộ	-9.40275
▁stuff	-9.40383
▁ro	-9.40454
▁Nothing	-9.40503
▁tham	-9.40523
▁nghi	-9.40528
▁each	-9.40642
▁thận	-9.40704
▁May	-9.4076
▁mine	-9.40784
▁cười	-9.40874
▁set	-9.4088
▁chi	-9.4089
▁pre	-9.40917
▁Mỹ	-9.40941
▁bọ	-9.40986
ure	-9.41
▁eyes	-9.41114
▁year	-9.41274
▁blood	-9.41281
▁Du	-9.41286
▁rượu	-9.41307
▁Bởi	-9.41325
J	-9.41401
▁number	-9.41432
▁reason	-9.41494
▁trang	-9.41529
▁30	-9.41576
▁sếp	-9.41619
▁lượng	-9.41639
▁viện	-9.41691
▁hồ	-9.41725
▁With	-9.41764
land	-9.41779
ice	-9.41994
▁Ben	-9.4217
ence	-9.42225
▁hướng	-9.42253
ever	-9.42295
▁thinking	-9.42376
▁Thưa	-9.42403
▁tim	-9.42444
ương	-9.42502
▁hạnh	-9.42519
ot	-9.4252
▁thank	-9.42615
▁working	-9.42677
▁văn	-9.43005
the	-9.43053
▁Chết	-9.43067
ING	-9.43133
▁wants	-9.43241
▁nằm	-9.43257
▁says	-9.43268
▁break	-9.4334
▁power	-9.43529
▁Đến	-9.43946
▁9	-9.43988
▁kiểu	-9.44022
▁alive	-9.4403
▁Sha	-9.4412
▁pi	-9.4417
▁phim	-9.442
▁giác	-9.44214
▁bước	-9.4423
▁đầy	-9.44356
▁fun	-9.44379
▁person	-9.44436
▁dừng	-9.44493
đ	-9.44499
▁căn	-9.44612
▁line	-9.44812
lin	-9.45058
▁bo	-9.45089
▁tư	-9.45094
▁Fuck	-9.45137
▁án	-9.45296
▁cáo	-9.45654
▁His	-9.45708
▁Với	-9.45773
▁ti	-9.45861
way	-9.45895
▁supposed	-9.45913
▁Te	-9.45929
▁beautiful	-9.45961
▁màu	-9.45965
▁also	-9.46027
▁Dù	-9.46184
▁tomorrow	-9.46353
▁species	-9.46356
▁thanh	-9.46357
one	-9.46392
▁On	-9.46414
▁Cũng	-9.46419
▁happy	-9.46419
ên	-9.46496
▁means	-9.46498
▁món	-9.46624
ật	-9.46904
▁Trung	-9.46931
▁minute	-9.47006
▁El	-9.47007
▁free	-9.471
▁o	-9.4715
nny	-9.47274
▁Ti	-9.47398
▁thiên	-9.4746
ak	-9.47539
▁khủng	-9.47539
;	-9.47606
▁speak	-9.47666
▁chu	-9.47884
▁Chính	-9.47938
▁mắn	-9.47955
▁tức	-9.4809
▁stand	-9.4842
▁five	-9.48454
▁afraid	-9.48472
▁càng	-9.4867
ọ	-9.48689
▁mu	-9.48774
▁act	-9.48864
ở	-9.48867
▁different	-9.48941
ố	-9.48956
ther	-9.49171
▁wish	-9.49222
The	-9.49301
▁ban	-9.49489
ang	-9.49574
▁riêng	-9.49686
▁bitch	-9.49818
▁dài	-9.49819
▁bu	-9.49819
▁everyone	-9.49904
▁taking	-9.50013
▁hours	-9.50046
fi	-9.50091
▁kiếp	-9.50093
▁four	-9.50115
▁save	-9.50128
▁đùa	-9.50227
▁daughter	-9.50363
▁sp	-9.50538
▁buồn	-9.50629
▁chúa	-9.50698
▁city	-9.50822
▁i	-9.50839
ea	-9.50856
con	-9.5095
▁du	-9.51146
▁book	-9.51179
▁tiếc	-9.51194
lan	-9.51222
▁Gu	-9.51242
▁khỏe	-9.51391
▁thù	-9.51624
▁Hold	-9.51691
ated	-9.51821
▁12	-9.51825
▁quanh	-9.51858
▁độc	-9.51932
▁Thanks	-9.521
▁mi	-9.52101
▁Wow	-9.5225
▁ga	-9.52256
gi	-9.52292
▁sleep	-9.52294
gg	-9.52369
▁moment	-9.52413
gan	-9.52448
tro	-9.5254
▁im	-9.52607
▁lũ	-9.5266
ù	-9.52843
▁phi	-9.52917
▁against	-9.5318
▁15	-9.5329
▁gắng	-9.53362
▁answer	-9.5341
red	-9.53442
od	-9.53521
Đ	-9.53536
▁mơ	-9.53617
▁story	-9.53645
▁body	-9.53702
▁mời	-9.53736
▁nghiệm	-9.53832
▁suốt	-9.5405
▁va	-9.54065
fe	-9.54077
▁Lại	-9.54184
▁nổ	-9.54299
▁thất	-9.54353
ợ	-9.54403
▁exactly	-9.54409
▁anymore	-9.54541
▁Whoa	-9.54586
▁đám	-9.54589
ld	-9.54674
▁Chúc	-9.54706
ế	-9.54727
▁question	-9.54746
▁Um	-9.54837
▁Ri	-9.54856
▁bánh	-9.54996
▁mãi	-9.55009
".	-9.55031
▁lái	-9.55049
▁Lúc	-9.55111
▁ngờ	-9.55183
▁sơ	-9.5527
▁cut	-9.55334
▁nhập	-9.55416
▁hoàng	-9.55462
▁cũ	-9.55495
▁cà	-9.55562
▁dành	-9.55631
▁gửi	-9.55973
ina	-9.56058
▁read	-9.56153
▁mong	-9.56197
▁Am	-9.56384
▁police	-9.56479
▁Mà	-9.56513
▁suy	-9.56534
▁ghét	-9.56658
▁hóa	-9.56915
ờ	-9.56923
▁ghi	-9.56996
▁pass	-9.57032
▁trouble	-9.5706
uck	-9.57205
lt	-9.57222
▁dad	-9.5738
▁send	-9.57439
▁thuộc	-9.57446
▁Keep	-9.57503
▁Ngay	-9.57533
▁chức	-9.57545
▁đóng	-9.57556
▁dream	-9.57719
end	-9.57757
▁quen	-9.57784
▁Cả	-9.57789
▁Sure	-9.57838
▁half	-9.57873
▁Excuse	-9.57939
▁having	-9.58172
▁Theo	-9.58211
▁lịch	-9.58381
ru	-9.58397
ally	-9.58412
▁later	-9.58486
▁triệu	-9.58607
▁giáo	-9.58637
▁Coi	-9.58668
▁Mấy	-9.58698
ớ	-9.58927
▁Hôm	-9.59049
ick	-9.59181
zz	-9.59505
▁che	-9.59574
▁asked	-9.59711
▁kiến	-9.59771
▁Si	-9.598
ông	-9.59942
ran	-9.60036
▁Our	-9.60042
▁thẳng	-9.60148
▁hoạt	-9.60171
▁James	-9.60172
▁nhảy	-9.60246
▁khóa	-9.60313
▁ly	-9.6034
▁shoot	-9.60418
▁Nhanh	-9.6064
▁touch	-9.60718
▁ngăn	-9.60865
ack	-9.60933
▁bức	-9.60948
▁full	-9.60956
▁ngựa	-9.61001
▁hate	-9.61027
ây	-9.61033
▁..	-9.61224
▁probably	-9.61229
▁Would	-9.61305
▁arm	-9.61362
▁behind	-9.61457
▁lose	-9.61521
▁đạn	-9.6161
▁Nên	-9.61643
▁ty	-9.61701
za	-9.61835
▁human	-9.61982
▁Chờ	-9.62098
▁protect	-9.62109
▁Bác	-9.62136
ân	-9.62187
AN	-9.62189
▁#273;	-9.62293
▁Some	-9.62333
▁important	-9.62453
▁trợ	-9.62473
7	-9.62635
▁pick	-9.62667
shi	-9.62896
▁Chưa	-9.62921
ẻ	-9.63076
▁dịch	-9.6311
▁rồi	-9.63231
▁Mom	-9.63253
ề	-9.63255
▁sign	-9.63299
▁chống	-9.63303
▁tương	-9.63352
ay	-9.634
▁dạy	-9.63536
▁đạo	-9.63547
▁least	-9.63548
que	-9.63637
▁chia	-9.63645
king	-9.63647
ep	-9.63679
su	-9.63794
▁Qu	-9.63881
ten	-9.63914
rs	-9.63949
▁chất	-9.63954
▁su	-9.63955
▁đỡ	-9.64102
▁These	-9.64103
▁trách	-9.64118
▁order	-9.6412
▁town	-9.64159
ya	-9.64175
ain	-9.6425
ite	-9.6428
▁hủy	-9.64317
ụ	-9.64324
▁Tom	-9.64325
ap	-9.64364
rk	-9.64385
▁truth	-9.64396
▁trận	-9.64489
▁hồi	-9.64518
▁Her	-9.64584
▁easy	-9.64631
▁sister	-9.64716
▁Put	-9.64858
den	-9.64867
▁return	-9.64946
pa	-9.65014
▁lợi	-9.65025
▁nghị	-9.65028
▁đuổi	-9.65032
▁Thì	-9.65071
▁khoảng	-9.65086
▁được	-9.65183
▁chừng	-9.65365
▁Two	-9.65446
▁Y	-9.6549
ất	-9.65643
▁lửa	-9.65679
ub	-9.65703
▁Har	-9.6581
▁kéo	-9.65903
ade	-9.65937
▁lính	-9.66006
▁test	-9.66041
▁ten	-9.66061
ko	-9.66128
▁child	-9.66146
▁Che	-9.66162
tter	-9.66268
▁Michael	-9.66296
▁damn	-9.663
▁Mon	-9.6634
▁waiting	-9.66386
▁chồng	-9.66392
▁quốc	-9.66465
▁making	-9.6656
▁makes	-9.66587
▁team	-9.66638
▁died	-9.66681
▁Đồ	-9.66738
side	-9.66808
▁Shit	-9.66841
▁Ru	-9.66923
▁kids	-9.66964
ker	-9.67018
▁đem	-9.67115
▁mau	-9.67169
▁Ki	-9.67189
ộ	-9.67193
▁Bỏ	-9.67232
ai	-9.67346
▁Tạ	-9.67444
▁tried	-9.67484
ps	-9.67654
▁lộ	-9.67734
▁Tuyệt	-9.67746
▁biển	-9.67746
▁lắng	-9.67746
▁Peter	-9.67847
▁count	-9.67914
▁ràng	-9.6799
▁bại	-9.6801
4	-9.68045
▁tụi	-9.68058
▁Nào	-9.68187
▁young	-9.68484
▁Bi	-9.68497
ze	-9.68645
▁chế	-9.68652
▁San	-9.68773
▁fall	-9.68894
▁Ngày	-9.68971
▁bữa	-9.68983
▁Stay	-9.69032
▁Thằng	-9.69059
▁lá	-9.6912
▁kì	-9.69123
▁Vào	-9.69128
ile	-9.69205
▁looks	-9.693
ắc	-9.69318
▁Tu	-9.69552
▁cưới	-9.69555
▁hẹn	-9.6963
ator	-9.69677
▁ký	-9.69721
▁]	-9.69775
vo	-9.69782
▁cướp	-9.69796
▁en	-9.69822
Ch	-9.69869
▁chung	-9.69912
▁Got	-9.69944
▁tránh	-9.69982
ỉ	-9.70025
we	-9.70069
▁đảm	-9.70128
▁sh	-9.70277
▁control	-9.70296
▁week	-9.70374
▁beetle	-9.70628
▁Yo	-9.7067
▁dây	-9.70747
ăng	-9.70819
ating	-9.7083
▁sở	-9.71371
ud	-9.71455
▁Harry	-9.71496
▁brought	-9.7155
▁Công	-9.7156
▁promise	-9.71577
▁âm	-9.71601
▁Pro	-9.71686
lf	-9.71702
▁ngôi	-9.71733
▁khăn	-9.71787
▁goes	-9.71794
▁mối	-9.71821
▁vàng	-9.71829
▁Which	-9.71888
▁sản	-9.71904
▁lầm	-9.71928
▁một	-9.72057
ền	-9.72155
oo	-9.72188
▁sent	-9.72276
▁nàng	-9.72482
line	-9.72557
ốt	-9.726
▁nguyên	-9.72668
▁miss	-9.72755
wi	-9.72775
ER	-9.72798
▁Lord	-9.7283
▁lie	-9.72841
▁lệ	-9.72896
▁đen	-9.72927
▁forget	-9.72998
gh	-9.73035
▁follow	-9.73131
âm	-9.7325
▁dog	-9.73303
▁King	-9.73392
▁country	-9.73445
▁Jesus	-9.73594
▁Thứ	-9.73601
tin	-9.73638
▁chả	-9.7377
▁Lần	-9.73794
▁hát	-9.73806
▁Tin	-9.73879
▁sit	-9.73901
ăn	-9.73908
6	-9.73997
▁phiền	-9.74118
▁chấp	-9.74131
▁children	-9.74199
▁Việc	-9.74284
out	-9.74311
▁trừ	-9.7433
▁tổ	-9.74342
▁Xem	-9.74353
▁lai	-9.74533
▁husband	-9.74544
▁phí	-9.74577
▁Even	-9.74594
io	-9.74596
▁hey	-9.74723
▁cu	-9.74749
▁between	-9.74805
▁secret	-9.74807
ỏ	-9.74825
▁front	-9.74829
tr	-9.74844
▁le	-9.74846
ring	-9.74854
▁hang	-9.74879
ậ	-9.75048
▁telling	-9.75125
▁mã	-9.75162
▁se	-9.75213
au	-9.75241
▁buy	-9.75256
9	-9.75444
▁feeling	-9.75469
iv	-9.7557
▁thuyền	-9.75592
▁Sp	-9.75641
▁cắt	-9.75718
▁Mike	-9.75741
ions	-9.75923
"?	-9.7604
▁binh	-9.76086
▁dám	-9.7612
▁expect	-9.76208
▁Un	-9.76214
chi	-9.76239
▁though	-9.76259
▁star	-9.76399
▁nửa	-9.76399
▁mom	-9.76767
▁tòa	-9.76826
▁Pe	-9.769
▁party	-9.77075
▁able	-9.77147
ook	-9.77165
▁Nhà	-9.77229
▁Hmm	-9.77294
▁outside	-9.77413
▁Car	-9.77481
ign	-9.77481
▁ahead	-9.77501
▁Wa	-9.77544
▁linh	-9.776
▁quần	-9.77731
ial	-9.77738
fa	-9.77758
▁người	-9.77814
ự	-9.77901
▁Alex	-9.78272
▁started	-9.78277
▁Z	-9.78312
ass	-9.78333
▁nè	-9.78382
▁phúc	-9.7844
▁truyền	-9.78535
▁Tra	-9.78543
ious	-9.78617
▁Bắt	-9.78753
▁quite	-9.78762
▁become	-9.78942
ét	-9.7897
▁hoa	-9.78971
▁pa	-9.78972
▁lựa	-9.78984
▁clean	-9.79075
▁ship	-9.79075
▁rắc	-9.7911
lic	-9.79202
ập	-9.79217
ỡ	-9.79248
▁million	-9.79257
ung	-9.79274
▁kích	-9.79285
▁nhạc	-9.79357
▁Chi	-9.79423
▁gra	-9.79484
▁tha	-9.79529
▁report	-9.79565
▁tích	-9.7968
▁đổ	-9.79804
▁Carl	-9.79839
▁phân	-9.7991
▁fact	-9.7993
▁land	-9.80074
▁Đức	-9.80094
▁Ok	-9.80176
nder	-9.8019
▁comes	-9.8037
▁Jim	-9.80479
ble	-9.80505
ex	-9.80639
▁thầy	-9.80655
ding	-9.80711
▁knows	-9.80823
▁cử	-9.80919
▁fast	-9.80994
▁After	-9.81001
▁vết	-9.81001
▁six	-9.81042
▁Fo	-9.81074
▁cannot	-9.81098
port	-9.81146
▁ứng	-9.81373
▁tiết	-9.81394
▁aren	-9.81394
▁Dan	-9.81417
▁Lu	-9.81443
8	-9.81492
rate	-9.81517
▁London	-9.81558
▁tiệc	-9.81558
▁khổ	-9.81582
▁18	-9.81622
▁Help	-9.81654
▁Về	-9.81682
▁thả	-9.81758
ừng	-9.81767
▁David	-9.81838
▁needs	-9.81984
▁pe	-9.82055
▁lives	-9.82074
▁shall	-9.82077
ries	-9.82106
▁phương	-9.82137
▁um	-9.82167
ến	-9.82189
▁times	-9.82191
▁giấy	-9.8222
▁50	-9.82237
▁along	-9.82408
▁Captain	-9.82494
▁months	-9.82517
▁Nice	-9.82562
▁comp	-9.82673
▁drive	-9.8273
▁thịt	-9.82881
▁cú	-9.82882
ake	-9.82952
▁huy	-9.83166
▁vượt	-9.83255
ON	-9.83394
▁Move	-9.83421
▁almost	-9.83534
▁Khoan	-9.83535
▁nghiêm	-9.8363
▁running	-9.83645
▁nhắc	-9.83752
▁cool	-9.83767
▁news	-9.83793
▁boys	-9.83848
▁somebody	-9.83915
▁diện	-9.8393
▁thuyết	-9.8401
ress	-9.84133
▁Bình	-9.84201
▁couple	-9.84201
tra	-9.84291
▁taken	-9.84292
▁rơi	-9.84319
▁Sự	-9.84418
▁whatever	-9.8449
▁key	-9.84617
▁Trông	-9.84702
▁office	-9.8474
▁Đứng	-9.84777
▁Thấy	-9.84793
▁lí	-9.848
cy	-9.84908
▁Cảnh	-9.84918
▁hẳn	-9.85106
▁married	-9.85162
▁nóng	-9.85174
▁lead	-9.85349
▁hot	-9.85394
▁giây	-9.85563
▁fa	-9.85598
▁Fe	-9.85749
ja	-9.85818
▁Mau	-9.85837
▁u	-9.8597
▁miệng	-9.86035
▁learn	-9.86115
itch	-9.86178
▁doctor	-9.8623
ab	-9.86412
▁100	-9.8645
▁worth	-9.86463
nie	-9.86497
ấu	-9.86547
▁By	-9.86577
▁stupid	-9.86622
▁Press	-9.86667
ệ	-9.86824
▁buộc	-9.86855
▁Huh	-9.86927
ric	-9.86928
▁fi	-9.86933
▁cầm	-9.86963
▁vua	-9.87015
ft	-9.87104
▁funny	-9.87118
▁seem	-9.87173
▁nhóm	-9.8731
▁Very	-9.87462
▁giận	-9.87616
▁cám	-9.8766
▁cưng	-9.87722
▁ích	-9.87786
▁vùng	-9.87824
▁Mc	-9.87849
▁soát	-9.87906
▁thuận	-9.87913
▁Only	-9.87924
ome	-9.88023
▁George	-9.88102
▁air	-9.88115
▁past	-9.88152
▁file	-9.88202
è	-9.88222
▁mái	-9.88314
▁small	-9.88402
▁xét	-9.88476
ôi	-9.8848
▁ngoại	-9.88501
▁săn	-9.88576
▁Any	-9.88593
ứ	-9.88652
time	-9.8872
▁lạnh	-9.8877
▁special	-9.88803
▁Hy	-9.88952
́	-9.88974
▁lễ	-9.89036
▁per	-9.89071
▁win	-9.89072
▁Charlie	-9.89102
▁piece	-9.89102
▁step	-9.8927
▁khoa	-9.89279
▁choice	-9.89307
▁sound	-9.89369
▁Trời	-9.89416
▁Mm	-9.89452
▁girls	-9.89549
▁ball	-9.89582
▁dõi	-9.89606
▁dị	-9.89609
5	-9.89691
▁sex	-9.89702
▁Everything	-9.89707
▁Something	-9.89808
▁túi	-9.89808
▁bed	-9.89845
wood	-9.89862
▁offer	-9.89869
▁food	-9.89916
▁giản	-9.89965
▁biết	-9.90014
ez	-9.90034
▁xu	-9.90082
een	-9.90108
▁sửa	-9.90267
ái	-9.90301
▁đông	-9.90404
▁nhờ	-9.90455
▁murder	-9.90509
▁either	-9.90518
ical	-9.90544
▁everybody	-9.9062
▁dữ	-9.90634
▁quỷ	-9.90725
▁Fu	-9.90805
▁Com	-9.90907
ận	-9.90958
▁pull	-9.90988
ase	-9.91001
men	-9.91038
ius	-9.91058
ỗ	-9.91094
ight	-9.91102
▁Quốc	-9.91137
tan	-9.91157
▁Bar	-9.91224
▁đoàn	-9.91234
▁Could	-9.91234
▁tí	-9.91364
▁Paul	-9.91477
hy	-9.91546
low	-9.91693
sen	-9.91743
▁trại	-9.9176
▁phù	-9.91777
ning	-9.91802
▁Max	-9.91804
▁sick	-9.91846
gar	-9.91874
▁wall	-9.91899
▁Mark	-9.91902
▁Cu	-9.91919
▁Trước	-9.91965
▁tận	-9.91995
▁chuyến	-9.92068
▁nhật	-9.92097
▁Cor	-9.92097
▁Mrs	-9.92151
▁Oliver	-9.92162
▁Cal	-9.92227
▁$	-9.92245
▁tai	-9.92274
▁boss	-9.92315
▁yếu	-9.92369
lar	-9.92394
led	-9.92419
▁luck	-9.9256
▁cuốn	-9.9289
▁grow	-9.92924
▁_	-9.9302
ực	-9.93102
ations	-9.93219
▁Make	-9.9326
▁Shut	-9.93415
▁Tối	-9.93448
Tôi	-9.93545
▁bận	-9.93664
▁Joe	-9.93684
ough	-9.93705
▁burn	-9.93731
▁fo	-9.9376
▁0	-9.93779
▁hour	-9.93786
▁Great	-9.93833
ò	-9.93867
uộc	-9.93903
▁Tránh	-9.93938
▁leaving	-9.93938
▁tóc	-9.93964
▁Was	-9.94044
▁fe	-9.94223
▁Claire	-9.94256
▁Yu	-9.94297
▁lừa	-9.94361
▁scared	-9.94376
▁mức	-9.94489
▁shut	-9.94518
kin	-9.9459
▁trộm	-9.94679
▁From	-9.94786
▁black	-9.94908
▁Christ	-9.95107
▁fla	-9.95181
▁Mary	-9.95291
ide	-9.95366
▁god	-9.95574
▁Cổ	-9.9558
▁imp	-9.95612
▁American	-9.95702
▁Muốn	-9.95747
▁Quá	-9.95776
▁blow	-9.95788
▁chăm	-9.95877
▁Fi	-9.95918
▁catch	-9.95956
▁hưởng	-9.95973
▁leg	-9.96048
▁picture	-9.96069
▁hồn	-9.96077
ủ	-9.96111
▁loạn	-9.96286
▁ground	-9.96299
▁thề	-9.96325
▁tỉnh	-9.96514
▁eye	-9.96525
You	-9.96688
▁bạc	-9.96784
ần	-9.96821
▁cung	-9.96851
▁himself	-9.97043
old	-9.97058
▁đỏ	-9.97072
ney	-9.97112
▁system	-9.97152
▁chữa	-9.9726
row	-9.97355
▁ước	-9.97405
ef	-9.97476
▁phủ	-9.97601
ult	-9.97621
ple	-9.97805
▁join	-9.97808
▁khai	-9.97829
▁tấm	-9.97949
▁đảo	-9.98027
▁thiếu	-9.98042
ped	-9.98098
▁kỹ	-9.98141
▁pain	-9.9816
▁biểu	-9.98247
▁horse	-9.98248
▁House	-9.98258
▁thể	-9.98271
▁feet	-9.98384
ward	-9.98391
▁company	-9.98467
▁Does	-9.98484
ốc	-9.98559
▁law	-9.98576
▁cẩn	-9.98578
▁sâu	-9.98631
▁trắng	-9.98688
▁women	-9.98691
ầy	-9.98692
ors	-9.98793
▁khẩu	-9.98909
▁sense	-9.98955
▁cạnh	-9.99036
com	-9.99073
▁En	-9.99095
▁nặng	-9.99131
▁figure	-9.99152
tive	-9.99241
▁Damn	-9.99246
▁tín	-9.99278
▁Master	-9.99316
▁possible	-9.99354
▁attack	-9.99364
▁gà	-9.99463
▁xúc	-9.99465
▁train	-9.99503
▁sạch	-9.99526
lor	-9.99591
▁Đang	-9.99614
▁ở	-9.99683
▁ác	-9.99746
▁quản	-9.9984
gen	-9.99903
cent	-9.99991
ầm	-10.0005
▁Never	-10.001
▁hư	-10.0014
▁Tới	-10.0017
▁Ban	-10.0017
▁luyện	-10.0036
▁sang	-10.0041
▁shouldn	-10.0045
Th	-10.005
▁Lấy	-10.005
▁đoạn	-10.0059
▁đằng	-10.0059
▁sổ	-10.006
▁seems	-10.0095
▁mistake	-10.0104
▁sóc	-10.012
▁ngàn	-10.0128
▁quy	-10.0137
▁record	-10.0138
▁thậm	-10.0149
▁lady	-10.0153
ana	-10.0157
dge	-10.0162
▁Say	-10.017
▁bag	-10.0177
▁box	-10.0179
▁living	-10.0197
▁throw	-10.0198
▁parents	-10.0206
▁mad	-10.0209
▁moving	-10.0232
▁anybody	-10.024
▁tăng	-10.0246
▁Paris	-10.0257
▁asking	-10.0258
▁First	-10.0263
▁hỏng	-10.0275
▁Bảo	-10.0275
ock	-10.0277
▁Tri	-10.0277
▁card	-10.0286
▁tồi	-10.0289
▁thuê	-10.0301
rus	-10.0301
▁hair	-10.0311
▁beat	-10.0328
ạch	-10.0329
▁Rõ	-10.0335
▁Ê	-10.0335
▁hộp	-10.0339
IN	-10.0341
▁lão	-10.0344
ẹ	-10.0345
ue	-10.0346
▁Bộ	-10.0357
▁hùng	-10.0369
ace	-10.0376
▁Vẫn	-10.0379
▁Ed	-10.0381
▁ru	-10.0388
▁gets	-10.0396
▁str	-10.04
▁Hoặc	-10.0402
▁fool	-10.0405
▁lặng	-10.0405
▁Hoàng	-10.0406
▁kho	-10.0412
▁happens	-10.0417
▁vực	-10.0418
▁nguyện	-10.0426
X	-10.0438
▁chuyên	-10.0438
▁write	-10.0449
▁serious	-10.0453
▁Tổng	-10.0453
if	-10.0459
▁tỏ	-10.0466
▁phóng	-10.0467
▁cop	-10.0473
▁dear	-10.0484
▁nợ	-10.049
▁Every	-10.0492
▁với	-10.0496
▁force	-10.0497
án	-10.05
tes	-10.0507
▁explain	-10.0508
▁xếp	-10.051
Tìm	-10.0511
▁bus	-10.0516
▁strong	-10.052
light	-10.0528
▁chương	-10.0537
▁pu	-10.0549
▁bom	-10.0549
▁Call	-10.0555
▁Ex	-10.0561
rick	-10.0563
▁Đợi	-10.0567
▁longer	-10.0576
▁entire	-10.0579
▁nhắn	-10.0629
▁kính	-10.0631
▁Cố	-10.0642
▁anyway	-10.0644
▁cụ	-10.0646
▁hạn	-10.0646
▁cold	-10.0647
▁track	-10.0655
▁chim	-10.0659
▁giấu	-10.0664
▁Watch	-10.0664
▁Giữ	-10.0664
ual	-10.0673
ev	-10.0675
▁Ke	-10.0676
▁nỗi	-10.0677
▁Ổng	-10.0679
▁xanh	-10.0689
▁Bob	-10.069
anh	-10.0694
ĩ	-10.0697
▁cover	-10.0701
▁khoản	-10.0701
▁fix	-10.0701
▁Bất	-10.0707
zi	-10.0709
▁honey	-10.0712
▁War	-10.0716
cr	-10.0729
▁Je	-10.0736
▁thăm	-10.0737
han	-10.0739
?"	-10.0743
̣	-10.0746
▁tàn	-10.075
▁Lạ	-10.0752
▁short	-10.0759
▁red	-10.0793
▁sub	-10.0794
▁cư	-10.0794
▁cell	-10.0797
▁mess	-10.0797
▁Hoa	-10.0809
all	-10.0811
▁đột	-10.0817
▁dinner	-10.0831
▁sót	-10.0831
▁Kim	-10.0832
▁fault	-10.0856
▁dính	-10.0868
▁message	-10.0869
▁sort	-10.0869
cho	-10.0872
▁Bill	-10.0877
▁hòa	-10.0877
▁building	-10.0878
▁Chạy	-10.088
▁Ge	-10.0902
lon	-10.0903
ek	-10.0903
▁kiss	-10.0908
▁w	-10.0914
▁street	-10.0917
▁Robert	-10.0917
▁cause	-10.0917
▁Over	-10.0928
▁future	-10.0929
▁Turn	-10.0943
▁ánh	-10.0957
▁camera	-10.0958
▁Bye	-10.0966
▁Tiến	-10.097
▁sun	-10.0975
▁Gia	-10.0978
▁Han	-10.0979
▁less	-10.0981
▁lành	-10.0981
▁careful	-10.0983
▁lưu	-10.0991
▁Mor	-10.0993
▁thở	-10.1
50	-10.1002
▁Ya	-10.1008
▁chặn	-10.1016
▁hút	-10.1016
▁Nick	-10.1022
▁thế	-10.1028
ừ	-10.1029
▁xinh	-10.1048
ường	-10.1051
▁Er	-10.1053
▁đống	-10.1057
▁Pri	-10.1065
atch	-10.1081
▁gr	-10.1084
#243;	-10.109
▁words	-10.1092
▁Thực	-10.1093
▁tri	-10.1095
▁cơn	-10.1098
▁Three	-10.1103
▁trấn	-10.1104
▁Really	-10.1106
▁Ni	-10.1113
}	-10.1115
▁Giá	-10.1117
▁thỏa	-10.1119
▁fear	-10.112
ắt	-10.1122
az	-10.1125
▁trà	-10.1127
▁bomb	-10.1135
▁Barry	-10.1138
▁mùi	-10.1139
rge	-10.1147
ship	-10.115
▁lối	-10.1152
▁Giống	-10.1153
▁Those	-10.1155
ged	-10.116
▁2004.	-10.1166
▁Nobody	-10.1178
▁tắm	-10.1178
▁Queen	-10.1192
▁truy	-10.1196
▁hữu	-10.1203
▁tôn	-10.1205
▁diệt	-10.1207
use	-10.1212
▁king	-10.1213
▁ngạc	-10.1216
▁lãnh	-10.1216
▁Cla	-10.1217
▁lớp	-10.1218
ita	-10.1222
▁cực	-10.1223
ử	-10.1227
rie	-10.1228
▁đích	-10.123
▁inter	-10.1236
▁Luc	-10.1249
▁kiện	-10.1255
▁á	-10.1258
▁hậu	-10.1292
▁road	-10.1295
▁mắc	-10.1309
â	-10.1312
▁Phi	-10.133
▁chạm	-10.1331
▁paper	-10.1333
▁ran	-10.1343
▁Shi	-10.1351
▁Gọi	-10.1356
▁drop	-10.1359
▁dựng	-10.1361
▁Father	-10.1371
lock	-10.1377
ping	-10.1377
Cause	-10.1379
▁tờ	-10.1382
▁white	-10.1382
▁na	-10.1383
▁thua	-10.1385
ear	-10.139
▁sell	-10.1391
▁khắp	-10.1396
rrow	-10.1398
▁khóc	-10.1422
▁trực	-10.1423
▁Sara	-10.1424
ấp	-10.1438
sis	-10.145
▁hảo	-10.1463
▁security	-10.1472
▁tường	-10.1476
▁Kill	-10.1478
▁glad	-10.1485
▁nuôi	-10.1486
ier	-10.1486
▁happening	-10.149
úng	-10.15
you	-10.1504
▁Tây	-10.1507
fu	-10.1507
▁changed	-10.1511
▁úy	-10.1511
▁quà	-10.1517
RE	-10.1521
▁reach	-10.1524
▁hospital	-10.1524
▁perfect	-10.153
ồn	-10.153
▁meeting	-10.153
ẽ	-10.1532
▁personal	-10.1534
▁super	-10.154
▁Long	-10.1552
▁Ab	-10.1555
▁deep	-10.1556
▁tạm	-10.1557
▁sân	-10.1561
▁Nam	-10.1563
van	-10.1564
▁nhầm	-10.1566
ể	-10.157
▁Boy	-10.1572
▁information	-10.1577
▁known	-10.1578
▁Dừng	-10.1582
▁Á	-10.1583
▁boat	-10.1596
LL	-10.1598
for	-10.1598
▁top	-10.16
pos	-10.1606
▁tả	-10.1608
des	-10.1613
▁dọa	-10.1616
▁needed	-10.1618
par	-10.1621
▁Pháp	-10.1622
▁Mở	-10.1625
ral	-10.163
▁não	-10.1642
▁quán	-10.1643
▁giường	-10.1644
▁Col	-10.1654
▁fl	-10.1657
rac	-10.1663
ôn	-10.1665
▁drug	-10.1669
▁phận	-10.167
▁straight	-10.1682
▁cộng	-10.1682
▁Tiếp	-10.1683
▁playing	-10.1697
▁bò	-10.171
▁Per	-10.1735
▁rút	-10.1735
▁Của	-10.1749
▁date	-10.1749
▁brain	-10.1753
rd	-10.1758
iệt	-10.1759
▁đa	-10.1765
▁charge	-10.1765
▁Sch	-10.1772
▁dance	-10.1774
▁sha	-10.1777
▁Thần	-10.1778
▁Fine	-10.1791
form	-10.1793
ities	-10.1803
âu	-10.1813
ong	-10.1813
▁Rachel	-10.1816
▁Big	-10.1817
▁weeks	-10.1824
▁FBI	-10.1829
▁ki	-10.183
ov	-10.1843
▁gold	-10.1845
▁Quay	-10.1855
▁muộn	-10.1856
▁class	-10.1856
▁dọn	-10.1856
▁app	-10.1858
▁guard	-10.1871
ox	-10.1887
▁ấy	-10.189
▁đập	-10.19
▁Leave	-10.191
▁Black	-10.1911
▁lu	-10.1914
ino	-10.1915
bra	-10.192
▁bang	-10.193
▁11	-10.1939
▁Số	-10.1939
▁hero	-10.1946
▁nobody	-10.1951
▁trễ	-10.1952
▁dress	-10.1956
▁cross	-10.1964
▁Open	-10.1964
ải	-10.1967
▁others	-10.1974
▁núi	-10.1978
▁list	-10.1979
▁somewhere	-10.198
▁finally	-10.1983
ơi	-10.1983
cause	-10.1989
▁ISBN	-10.1992
▁Someone	-10.1993
▁Danny	-10.1994
▁Whatever	-10.1995
,000	-10.1997
ục	-10.2
▁tổng	-10.2007
▁dark	-10.2007
ắn	-10.2008
▁stick	-10.2008
▁Mac	-10.2012
ize	-10.2031
▁Welcome	-10.2033
▁lưng	-10.2033
ste	-10.2033
▁Biết	-10.2037
▁smell	-10.2047
99	-10.205
▁tướng	-10.2063
▁Run	-10.2066
▁sca	-10.2067
ew	-10.2067
▁wa	-10.207
▁dục	-10.2073
▁Ad	-10.2073
▁nội	-10.2077
▁saved	-10.2079
rry	-10.2082
cha	-10.2085
▁tồn	-10.2086
don	-10.2087
▁bla	-10.2087
▁President	-10.2088
▁vậy	-10.2088
▁tầm	-10.212
ời	-10.212
▁Min	-10.2129
▁honor	-10.2129
ăm	-10.2133
ỗi	-10.2138
▁wonder	-10.2144
▁Daddy	-10.2146
▁chán	-10.2147
▁calling	-10.215
▁bank	-10.2151
ức	-10.2157
▁near	-10.217
ob	-10.217
hu	-10.2172
▁j	-10.2176
ik	-10.2183
▁mẫu	-10.2185
▁worse	-10.2185
▁dàng	-10.2187
▁song	-10.2189
▁visit	-10.2199
▁chữ	-10.2202
well	-10.2211
▁thừa	-10.2213
ok	-10.2213
ium	-10.2217
▁hào	-10.2221
ấm	-10.2226
▁tầng	-10.2227
▁lucky	-10.2228
▁worked	-10.2259
unk	-10.2261
▁base	-10.2268
▁giấc	-10.2269
▁realize	-10.2272
▁Martin	-10.2273
xi	-10.2274
▁ride	-10.2277
▁handle	-10.2281
▁đài	-10.2281
▁ẩn	-10.2283
▁mouth	-10.2283
ham	-10.2284
▁Ken	-10.2286
▁peace	-10.2298
▁nghệ	-10.2298
ắ	-10.2299
ella	-10.2304
ý	-10.2305
hmm	-10.2306
▁floor	-10.2311
gue	-10.2312
▁để	-10.2314
▁Za	-10.2315
▁thủy	-10.2326
▁Everyone	-10.2326
br	-10.2329
▁Bro	-10.2332
▁trá	-10.2334
▁weird	-10.234
▁hu	-10.2346
▁xứng	-10.2347
▁hoang	-10.2349
▁fair	-10.2357
▁hổ	-10.236
▁killing	-10.237
▁fish	-10.2373
du	-10.2373
▁sweet	-10.2378
hen	-10.2387
ấy	-10.2389
▁mê	-10.2391
▁ski	-10.2393
▁thang	-10.2395
▁till	-10.2396
▁Remember	-10.2396
▁questions	-10.2398
▁40	-10.2398
▁kêu	-10.2403
▁University	-10.2411
▁Everybody	-10.2425
uff	-10.2425
▁Nè	-10.2429
19	-10.2432
▁weren	-10.2435
gra	-10.2446
▁trans	-10.2447
▁đón	-10.2448
▁Hình	-10.2453
▁Sta	-10.2466
jo	-10.2467
#225;	-10.2468
▁tung	-10.2469
▁cháy	-10.2482
▁TV	-10.2484
▁ngừng	-10.2485
▁thanks	-10.2486
▁smart	-10.2496
ath	-10.2507
ớ	-10.2513
▁dòng	-10.252
ối	-10.2528
▁hầm	-10.2528
▁ngân	-10.2528
▁serve	-10.2534
▁200	-10.2535
ji	-10.2555
▁jump	-10.2556
▁kidding	-10.257
▁fr	-10.2573
▁Wi	-10.2577
▁Richard	-10.2583
ible	-10.2587
▁nghiên	-10.2589
of	-10.2604
▁given	-10.2611
▁Hiểu	-10.2612
▁dangerous	-10.2613
vent	-10.2623
▁People	-10.2627
▁chụp	-10.2627
▁William	-10.2627
▁Time	-10.2629
nce	-10.263
ột	-10.2637
▁welcome	-10.2641
▁steal	-10.2641
▁xây	-10.2644
▁looked	-10.2656
▁Jimmy	-10.2671
illa	-10.2673
▁suit	-10.2683
augh	-10.2688
yn	-10.2689
aw	-10.2698
▁kick	-10.272
lia	-10.2721
▁bastard	-10.2729
▁nắm	-10.2729
▁Joey	-10.2733
▁Dĩ	-10.2734
▁arrest	-10.2744
20	-10.2747
uc	-10.2757
▁chặt	-10.2759
▁tiểu	-10.2759
▁Matt	-10.2784
▁broke	-10.2787
lip	-10.2787
▁quiet	-10.2788
▁vai	-10.279
lie	-10.2806
▁Cứu	-10.2807
30	-10.2808
ose	-10.2811
ấn	-10.2812
▁soul	-10.2812
▁rock	-10.2813
▁machine	-10.2818
▁window	-10.2818
▁White	-10.2819
▁Bắc	-10.2828
▁Jane	-10.2829
▁present	-10.2833
▁khắc	-10.2835
▁Lin	-10.2839
▁nhẫn	-10.2847
▁khởi	-10.2849
▁position	-10.2851
▁phê	-10.2852
▁tắt	-10.2852
▁foot	-10.2854
▁nguồn	-10.2863
▁Ber	-10.2868
▁chảy	-10.287
▁{\	-10.2871
▁24	-10.2874
▁Chà	-10.2875
▁túc	-10.2877
▁mệt	-10.2877
▁Ray	-10.2882
OR	-10.2901
▁Back	-10.2903
▁Ross	-10.2906
ula	-10.2909
ou	-10.2919
▁những	-10.2923
▁Think	-10.2925
▁Out	-10.2929
▁escape	-10.2937
òng	-10.2941
õ	-10.2941
pped	-10.2946
▁respect	-10.2952
▁plane	-10.2953
▁16	-10.2958
▁kept	-10.2967
▁Cam	-10.2968
▁letter	-10.297
wer	-10.2974
bel	-10.2976
ồng	-10.2979
cing	-10.2991
▁vẽ	-10.3001
▁fly	-10.3005
▁share	-10.3015
▁ngục	-10.3018
▁Sarah	-10.302
▁bè	-10.3021
▁rather	-10.3027
ời	-10.3035
▁đệ	-10.3036
▁tiện	-10.3046
ju	-10.3047
▁mùa	-10.3051
▁finish	-10.3052
▁Mmm	-10.3054
▁rừng	-10.3063
▁Roy	-10.3064
gin	-10.3068
#7871;	-10.3073
▁trạng	-10.3073
▁contact	-10.3073
▁wake	-10.3077
▁Pre	-10.3087
▁draw	-10.3089
▁push	-10.3091
▁Ver	-10.3091
▁Lên	-10.3097
wo	-10.3103
ku	-10.311
▁loved	-10.3115
▁sắc	-10.3116
▁thái	-10.3123
▁Lee	-10.3125
▁hundred	-10.3135
▁chìa	-10.3135
▁animal	-10.3135
▁chiều	-10.3136
▁pen	-10.3137
▁Đáng	-10.3145
000	-10.3148
zo	-10.3149
▁van	-10.3161
▁áp	-10.3162
▁crime	-10.3165
▁sing	-10.3175
▁felt	-10.3182
▁hầu	-10.3183
▁Mỗi	-10.3185
▁history	-10.3186
▁mũi	-10.3192
▁Ye	-10.3195
▁giving	-10.3199
▁cục	-10.3203
▁Ô	-10.3204
▁đèn	-10.3204
▁Phil	-10.3205
▁ya	-10.3206
▁Son	-10.3208
▁triển	-10.3211
▁kỷ	-10.3212
▁Đội	-10.3215
▁agree	-10.322
ank	-10.3223
▁Ngồi	-10.3228
▁gen	-10.3228
▁Wh	-10.3238
▁Steve	-10.3238
▁00	-10.3242
▁khám	-10.3244
ễ	-10.3255
▁Scott	-10.3258
▁Giết	-10.3261
▁ob	-10.3264
▁trải	-10.3272
▁table	-10.3273
▁consider	-10.3274
▁khiển	-10.3289
▁dao	-10.3293
▁Hạ	-10.3305
ọc	-10.3312
qua	-10.3316
▁14	-10.3319
▁thousand	-10.332
▁caught	-10.332
▁buddy	-10.332
▁risk	-10.3321
▁Try	-10.3323
▁thoả	-10.3326
▁grand	-10.3333
▁dặm	-10.3336
▁tộc	-10.3336
sti	-10.3336
▁command	-10.3337
ized	-10.334
rch	-10.3343
▁gu	-10.3351
▁Ít	-10.3351
ute	-10.3353
▁art	-10.3367
▁soldier	-10.3367
▁trụ	-10.3374
▁luận	-10.3383
▁ja	-10.3385
▁mộ	-10.3388
▁vỡ	-10.3388
▁Mer	-10.3392
▁prove	-10.3394
▁tốc	-10.3398
▁kim	-10.34
▁Sy	-10.3401
▁Q	-10.3403
▁laugh	-10.3405
rin	-10.3407
▁cỡ	-10.3408
ttle	-10.3416
▁slow	-10.3424
▁chúc	-10.3429
▁Bao	-10.3432
▁Bri	-10.3432
ura	-10.3433
▁mông	-10.3437
▁nô	-10.3437
ạo	-10.3438
▁search	-10.3446
▁bầu	-10.345
▁Dave	-10.3461
▁swear	-10.3462
▁Henry	-10.3462
▁muốn	-10.3462
▁watching	-10.3467
▁travel	-10.348
▁Star	-10.3484
▁bội	-10.3484
▁nha	-10.3488
▁giảm	-10.3491
▁hứng	-10.3493
▁Nơi	-10.3497
▁đào	-10.3502
ầu	-10.3503
▁carry	-10.3509
day	-10.3516
off	-10.3518
▁sword	-10.3529
▁Hol	-10.3541
▁belong	-10.3542
▁ô	-10.3546
No	-10.3563
óc	-10.3565
▁teach	-10.358
▁Bắn	-10.3581
j	-10.3582
Anh	-10.3582
▁Bring	-10.3582
▁hide	-10.3589
▁deserve	-10.3589
▁sạn	-10.3589
▁About	-10.359
ense	-10.359
▁state	-10.359
can	-10.359
▁Năm	-10.3592
▁gentlemen	-10.3605
▁seven	-10.361
▁North	-10.3614
What	-10.3615
▁ne	-10.3625
▁seat	-10.3636
▁situation	-10.3637
▁Nhớ	-10.364
▁thờ	-10.3655
▁Hả	-10.3677
▁đói	-10.3679
▁đẩy	-10.3686
▁voice	-10.3687
▁ninh	-10.3688
ink	-10.3694
▁whoa	-10.3697
▁Rick	-10.3712
▁sco	-10.3729
▁Sal	-10.3735
▁hò	-10.3738
IS	-10.374
10	-10.3747
▁Should	-10.3751
▁officer	-10.3751
▁Đầu	-10.3753
▁pla	-10.3757
▁Nga	-10.3758
ược	-10.3763
▁German	-10.3767
▁Rome	-10.3769
fer	-10.377
▁nối	-10.3771
▁Del	-10.3771
log	-10.3781
▁honest	-10.3784
▁siêu	-10.3784
▁pray	-10.3785
▁music	-10.3786
▁thơ	-10.3793
▁master	-10.3794
▁turned	-10.3798
▁normal	-10.38
▁Giáo	-10.3801
ùng	-10.3809
▁ném	-10.3816
ash	-10.3817
ative	-10.382
▁killer	-10.382
▁enjoy	-10.3833
▁imagine	-10.3833
▁cook	-10.3836
read	-10.3838
▁Kẻ	-10.384
▁toán	-10.3844
ại	-10.3846
▁Tụi	-10.3849
▁13	-10.3853
▁seeing	-10.386
▁Ow	-10.386
▁fu	-10.3862
▁phẩm	-10.3866
▁General	-10.3866
NG	-10.3882
▁phong	-10.3884
ette	-10.3886
▁Gar	-10.3891
▁City	-10.3891
▁ám	-10.3894
▁thánh	-10.3899
▁Eddie	-10.3899
▁pha	-10.3905
▁thí	-10.3905
ES	-10.3911
▁Mal	-10.3913
▁Trên	-10.392
▁Sit	-10.393
▁tặng	-10.3932
▁Earth	-10.3932
▁thiệu	-10.395
▁25	-10.3954
dent	-10.3954
win	-10.3955
▁nạ	-10.3957
▁meant	-10.3961
▁Giúp	-10.3965
▁code	-10.3967
▁oh	-10.3968
▁ring	-10.3973
▁Anna	-10.3988
▁Too	-10.399
▁missing	-10.4005
ude	-10.4007
̀	-10.4008
▁Bị	-10.4014
▁Cẩ	-10.4015
▁Nhân	-10.4017
▁Trái	-10.4018
▁rộng	-10.4018
har	-10.4019
ria	-10.4028
▁lương	-10.4029
▁gift	-10.4034
▁Ooh	-10.4034
▁Tommy	-10.4035
▁vận	-10.4037
▁huynh	-10.4038
▁quick	-10.4044
▁month	-10.4045
▁video	-10.4049
▁miles	-10.4054
▁Pu	-10.4065
▁mệnh	-10.4065
▁tired	-10.4068
▁flow	-10.4068
▁nhẹ	-10.4069
ồi	-10.4069
▁forever	-10.4087
eo	-10.4089
▁chớ	-10.4092
▁Câu	-10.4092
▁More	-10.4094
▁Fr	-10.4098
▁support	-10.4099
▁chuột	-10.41
▁vĩ	-10.41
▁phán	-10.4102
▁treat	-10.4102
▁giám	-10.4109
▁tree	-10.411
▁lying	-10.4114
▁địch	-10.4116
▁ghế	-10.4116
▁finger	-10.4117
▁target	-10.4117
▁works	-10.4119
▁fighting	-10.4124
▁rid	-10.413
▁agent	-10.4135
ước	-10.4138
▁Thiên	-10.4156
▁sea	-10.416
▁giàu	-10.416
▁across	-10.4167
▁Val	-10.4167
▁thưởng	-10.4169
▁paid	-10.417
▁partner	-10.4171
▁Chu	-10.4175
▁prison	-10.418
▁worried	-10.4184
▁bụng	-10.4184
▁Bur	-10.4192
ói	-10.4201
▁simple	-10.4201
▁Ze	-10.4201
▁spend	-10.4203
▁Đủ	-10.4204
▁wear	-10.4205
avi	-10.4205
▁Show	-10.4211
#236;	-10.4218
▁chối	-10.4221
▁Dean	-10.4224
▁cờ	-10.4225
▁tro	-10.4225
▁Kể	-10.4228
▁bốn	-10.424
▁army	-10.4249
▁Thành	-10.4254
▁Pat	-10.4276
▁tán	-10.4281
▁Đồng	-10.4302
▁sad	-10.4304
▁birthday	-10.4304
▁Emily	-10.4304
iết	-10.431
▁Bằng	-10.4324
▁lỗ	-10.4326
▁Tự	-10.433
▁coffee	-10.4338
▁chậm	-10.4338
▁Wall	-10.4346
Không	-10.435
▁pin	-10.4354
cher	-10.4357
▁al	-10.4362
▁para	-10.4363
▁born	-10.4365
▁hài	-10.4372
▁accident	-10.4373
▁movie	-10.4374
▁temp	-10.4374
▁poor	-10.4381
▁dạng	-10.4384
▁truck	-10.4395
▁early	-10.4397
We	-10.442
▁station	-10.4422
▁đế	-10.4425
▁service	-10.4425
▁Sẵn	-10.4425
▁Khá	-10.4433
▁Up	-10.4436
▁Gặp	-10.4443
▁Tình	-10.4443
▁calm	-10.4443
▁hung	-10.4445
▁owe	-10.4453
ần	-10.4455
▁idiot	-10.446
▁trip	-10.4465
▁cắp	-10.4465
He	-10.4465
▁survive	-10.4478
▁bird	-10.4479
▁mission	-10.4488
▁hạt	-10.4496
▁ngược	-10.4497
▁thiệt	-10.4499
▁xung	-10.4504
ray	-10.4507
▁cops	-10.4512
▁accept	-10.4513
mate	-10.4513
▁anywhere	-10.4514
▁17	-10.452
ũ	-10.452
▁age	-10.4525
▁kịch	-10.453
▁đến	-10.4532
▁Boo	-10.4536
ging	-10.4541
▁destroy	-10.4544
ara	-10.4553
ách	-10.4554
▁Wil	-10.4557
▁sông	-10.4563
▁Cuối	-10.4566
▁eight	-10.4568
▁suck	-10.4586
LE	-10.4594
▁Has	-10.4597
▁đua	-10.4601
▁seconds	-10.461
▁ju	-10.4615
oc	-10.4623
▁màn	-10.4629
▁hat	-10.4634
ature	-10.4637
▁Ăn	-10.4637
EN	-10.4637
0,000	-10.4643
▁suppose	-10.465
▁Actually	-10.4654
▁Perhaps	-10.4654
▁Daniel	-10.4672
▁lock	-10.4678
▁America	-10.468
_	-10.4686
▁giam	-10.4689
▁cậu	-10.469
▁Cơ	-10.4694
▁Jake	-10.4699
▁Fire	-10.47
oon	-10.4701
–	-10.4704
ội	-10.4705
▁remain	-10.4708
ano	-10.471
▁mẽ	-10.4712
▁marry	-10.4713
▁họp	-10.4714
▁thẻ	-10.4715
▁Isn	-10.4717
▁pal	-10.4724
▁terrible	-10.4726
▁hãi	-10.4728
▁trick	-10.474
▁fan	-10.4741
áng	-10.4742
#7845;	-10.4744
▁clothes	-10.4744
▁điệp	-10.4744
▁magic	-10.4745
▁vé	-10.4754
elle	-10.4787
▁rich	-10.4794
▁government	-10.4798
▁Mã	-10.4801
▁Dar	-10.481
▁group	-10.4816
▁Shh	-10.4816
len	-10.4817
▁trao	-10.4829
▁Billy	-10.483
▁wedding	-10.4834
▁field	-10.4835
▁Đường	-10.4838
▁ấn	-10.4844
▁favor	-10.4852
▁sounds	-10.4855
▁thiện	-10.4855
cer	-10.4858
▁missed	-10.4862
▁dụ	-10.487
▁doubt	-10.4871
▁nghề	-10.4871
▁bear	-10.4877
▁Lan	-10.4877
▁exist	-10.4877
▁ả	-10.4882
▁cat	-10.4889
▁trăm	-10.4892
▁Love	-10.4894
▁ok	-10.4897
▁vinh	-10.4905
▁raise	-10.4907
▁Zo	-10.4907
▁English	-10.4907
ο	-10.4907
▁YOU	-10.4926
▁sometimes	-10.4926
▁appear	-10.4926
▁Ờ	-10.4929
▁round	-10.4931
ác	-10.4934
▁đốc	-10.4935
▁Win	-10.4936
▁đấy	-10.4945
▁earth	-10.4948
▁amazing	-10.4962
▁type	-10.4963
▁khiếp	-10.4963
mmy	-10.4971
▁fra	-10.4977
▁appreciate	-10.4981
dia	-10.4991
▁tải	-10.4998
▁mark	-10.4999
▁goddamn	-10.4999
▁gió	-10.5005
▁French	-10.5018
▁bạo	-10.5022
▁khoan	-10.5029
▁single	-10.503
▁Thả	-10.5031
▁Đôi	-10.5036
▁thấy	-10.5037
▁middle	-10.5038
▁busy	-10.5053
▁deliver	-10.5055
▁Thời	-10.5058
▁weak	-10.5068
▁Thu	-10.5069
▁Chuẩn	-10.5073
▁concern	-10.5073
▁Agent	-10.5074
▁hấp	-10.5077
▁Check	-10.5079
▁ừ	-10.5088
▁account	-10.5092
▁chứ	-10.5095
▁completely	-10.5098
▁using	-10.5109
▁niềm	-10.5111
▁kẹt	-10.5111
▁THE	-10.5117
▁Woo	-10.512
▁nu	-10.5128
▁Stu	-10.5129
▁blue	-10.5129
▁đe	-10.5145
▁Still	-10.5148
▁court	-10.5149
▁đòi	-10.5149
rio	-10.515
▁cry	-10.5153
tory	-10.5156
▁bullet	-10.5168
▁khoá	-10.5172
▁rep	-10.5179
▁đeo	-10.5183
▁Bên	-10.5183
▁phạt	-10.5186
▁rác	-10.5186
▁xưa	-10.5187
▁thượng	-10.5188
▁wi	-10.5192
▁tổn	-10.5203
▁Adam	-10.5208
▁Ser	-10.5213
▁Once	-10.5217
▁dude	-10.5223
▁Châu	-10.5226
ban	-10.5234
▁West	-10.5242
#432;	-10.5261
▁ngoan	-10.5261
▁Leo	-10.5263
▁Tony	-10.5263
▁Độ	-10.5268
▁ghê	-10.528
▁self	-10.5282
▁Gro	-10.5282
▁area	-10.5298
head	-10.5307
fo	-10.5314
press	-10.5314
▁giọng	-10.5318
▁president	-10.5318
▁pleasure	-10.5318
▁Nhiều	-10.5319
▁nam	-10.5327
nna	-10.5332
▁lao	-10.5335
▁đụng	-10.5337
▁Sw	-10.5338
▁battle	-10.534
▁Vấn	-10.5341
▁Au	-10.5352
▁public	-10.5356
▁forgive	-10.5357
▁ice	-10.5362
▁upon	-10.5365
▁cản	-10.5373
▁Far	-10.5378
▁pur	-10.5378
▁proud	-10.5378
▁dung	-10.5384
▁Ku	-10.5384
éo	-10.5394
ole	-10.5399
▁low	-10.5405
▁khuyên	-10.5415
▁Little	-10.5415
▁khỉ	-10.5419
▁–	-10.5419
▁mis	-10.5427
▁roll	-10.5437
▁ngang	-10.5438
▁rồ	-10.5439
▁Kat	-10.5444
▁Charles	-10.5453
ica	-10.5454
▁xuyên	-10.5473
▁board	-10.5477
▁tạp	-10.5478
▁unit	-10.5479
▁dã	-10.5481
ken	-10.5493
▁ghé	-10.5494
▁spot	-10.5495
▁chai	-10.5501
ix	-10.5511
▁Holy	-10.5512
▁Down	-10.5517
▁yesterday	-10.553
▁tóm	-10.553
▁chiếm	-10.5531
▁Va	-10.5536
▁level	-10.555
**	-10.555
▁Park	-10.5551
▁phu	-10.5565
▁South	-10.5573
▁following	-10.5577
▁cập	-10.5581
▁begin	-10.5582
▁ống	-10.5589
▁mô	-10.5589
▁Mother	-10.5592
equ	-10.5603
▁Par	-10.5606
▁decision	-10.5608
▁Hết	-10.5608
ă	-10.5612
▁tố	-10.5614
▁post	-10.5616
▁kí	-10.5616
ify	-10.5617
ane	-10.5618
▁lab	-10.5619
▁space	-10.5631
▁Thanh	-10.5635
▁mention	-10.564
▁evening	-10.5645
▁suggest	-10.5648
▁thẩm	-10.5648
▁drunk	-10.5648
oh	-10.5655
▁Mag	-10.5656
ball	-10.5656
▁lay	-10.5661
▁wonderful	-10.5669
▁răng	-10.5675
bbi	-10.5687
▁cặp	-10.5687
▁lẫn	-10.5687
▁patient	-10.5687
▁Honey	-10.5689
▁pack	-10.5695
▁Bel	-10.5701
▁tùy	-10.5711
▁đâm	-10.5712
▁hole	-10.572
▁về	-10.5727
▁asshole	-10.5727
ởi	-10.5731
▁bù	-10.5731
▁talked	-10.5748
-1	-10.5749
▁stopped	-10.575
ically	-10.5753
▁weapon	-10.5754
▁Xe	-10.5756
▁lãng	-10.5767
▁fill	-10.5771
▁Ty	-10.5771
ency	-10.5774
▁Didn	-10.5777
▁scar	-10.5782
▁cor	-10.5783
▁victim	-10.5787
▁freak	-10.5787
▁sóng	-10.5787
▁xương	-10.5791
▁comm	-10.5791
▁wh	-10.5794
▁tắc	-10.5796
▁buôn	-10.5804
▁knock	-10.5807
▁mò	-10.5818
▁Cú	-10.5823
▁Anything	-10.5827
▁nát	-10.5827
▁Thầy	-10.5831
▁block	-10.5833
▁Five	-10.5839
vy	-10.5844
ắp	-10.5849
▁cổng	-10.585
▁Cách	-10.5867
▁disappear	-10.5867
late	-10.587
▁vâng	-10.5871
air	-10.5872
▁tea	-10.5874
▁el	-10.5876
▁strange	-10.5886
▁Máy	-10.5887
▁Brother	-10.5888
▁store	-10.5892
▁xã	-10.5892
▁Đông	-10.5902
▁bra	-10.5903
▁thảm	-10.5905
▁Maria	-10.5905
#7843;	-10.5907
▁Ly	-10.5909
▁Chỗ	-10.5911
▁Roger	-10.5912
▁decided	-10.5924
▁Mặc	-10.5927
▁evidence	-10.5927
▁sitting	-10.5932
èo	-10.5942
▁CH	-10.5942
▁attention	-10.5948
round	-10.5959
▁Louis	-10.5965
ject	-10.5971
lick	-10.5972
▁bro	-10.5975
▁none	-10.5978
▁ngh	-10.5989
▁Trả	-10.5995
▁thai	-10.6003
▁Aah	-10.6006
▁trưa	-10.601
▁lôi	-10.6011
và	-10.6014
ati	-10.6014
▁trống	-10.602
▁bẩn	-10.6029
▁glass	-10.6029
▁price	-10.6029
▁thám	-10.6029
▁chuyện	-10.603
▁forward	-10.6031
▁totally	-10.6031
▁hurry	-10.605
▁threat	-10.6051
▁Thái	-10.6053
ếm	-10.6055
▁Baby	-10.6058
▁Ten	-10.606
cut	-10.6067
cus	-10.6069
▁hiệp	-10.607
▁scene	-10.607
▁joke	-10.607
▁match	-10.6076
▁fell	-10.6078
▁Grand	-10.6091
ến	-10.6094
▁tough	-10.61
▁60	-10.6105
RO	-10.6106
ật	-10.6109
burg	-10.6109
▁Green	-10.6112
96	-10.6114
▁Ham	-10.6114
▁Chris	-10.6115
▁Tim	-10.6116
cept	-10.6125
dio	-10.613
▁khứ	-10.6138
▁vương	-10.6143
cle	-10.6145
▁Spa	-10.6147
iếu	-10.6148
work	-10.6153
berg	-10.6154
▁Xong	-10.6155
▁hunt	-10.6157
▁action	-10.616
▁kịp	-10.6174
▁nữa	-10.6174
▁đựng	-10.6174
▁trùng	-10.6176
▁Đâu	-10.6177
▁Vụ	-10.618
▁Thomas	-10.6194
▁đạt	-10.6194
▁choose	-10.6195
▁Johnny	-10.6195
sky	-10.6198
▁wearing	-10.6199
▁radio	-10.6202
▁ảo	-10.6209
▁private	-10.6215
▁dying	-10.6216
▁Rose	-10.6218
▁Fred	-10.6222
▁Russian	-10.6222
▁Find	-10.6225
▁cân	-10.623
tôi	-10.6232
cal	-10.6233
▁Somebody	-10.6236
▁spoke	-10.6236
▁rain	-10.6242
▁giày	-10.6253
▁hasn	-10.6256
▁evil	-10.6257
▁ah	-10.6257
▁wound	-10.6258
▁Quả	-10.6263
▁Victor	-10.6265
▁ear	-10.6268
▁difference	-10.6278
▁extra	-10.628
▁gấp	-10.6282
▁bơi	-10.6295
▁enemy	-10.6299
▁bother	-10.6302
▁rules	-10.6305
▁đốt	-10.6308
▁program	-10.6321
▁sứ	-10.6321
▁cru	-10.6322
▁hungry	-10.6323
▁Kate	-10.6327
▁ấm	-10.6333
▁sin	-10.6335
▁Hand	-10.6337
▁Stan	-10.6338
▁Nathan	-10.6341
iện	-10.6344
▁/	-10.6347
▁def	-10.6348
ism	-10.6349
▁guns	-10.636
▁dare	-10.6361
ối	-10.6361
▁broken	-10.6363
▁Air	-10.6363
▁Since	-10.6363
▁stuck	-10.6366
▁thấp	-10.6367
▁Thủ	-10.6367
▁vớ	-10.6371
▁đồn	-10.6386
▁bờ	-10.6387
▁Gã	-10.6389
▁camp	-10.6395
▁Last	-10.6397
mmer	-10.6404
▁collect	-10.6405
▁ép	-10.6405
▁bả	-10.6411
▁Bra	-10.6419
▁bếp	-10.6426
▁sake	-10.6426
▁rửa	-10.6429
▁đức	-10.6429
▁fat	-10.6434
80	-10.6438
▁vẩn	-10.6447
▁Ảnh	-10.6449
▁enter	-10.6454
▁Hà	-10.6455
pping	-10.6455
▁tây	-10.6459
▁Four	-10.6461
▁ver	-10.6462
▁address	-10.6469
ama	-10.6471
▁East	-10.6475
ology	-10.6476
▁mồm	-10.6477
▁mar	-10.6483
▁surprise	-10.6489
ugh	-10.649
#7853;	-10.649
▁continue	-10.649
▁lĩnh	-10.649
▁sáu	-10.649
▁ngón	-10.6491
▁within	-10.6493
horn	-10.6494
̃	-10.6509
field	-10.6511
▁Phòng	-10.6513
▁treo	-10.6515
▁hotel	-10.652
▁wo	-10.6522
▁Want	-10.6523
▁Arthur	-10.6533
▁grab	-10.6545
▁thèm	-10.6555
▁suffer	-10.6555
▁Bobby	-10.6556
▁mèo	-10.6558
▁spent	-10.656
▁Pan	-10.6561
board	-10.6562
lish	-10.6567
ửa	-10.6569
▁access	-10.6576
▁except	-10.6577
▁named	-10.6581
▁==	-10.6583
▁tight	-10.6585
▁Vương	-10.6585
▁cận	-10.6588
ợ	-10.6594
▁Roman	-10.6594
▁warm	-10.6595
▁Dis	-10.6597
▁screw	-10.6598
▁apartment	-10.6599
▁Vui	-10.6601
▁bãi	-10.6601
▁north	-10.6601
▁finished	-10.6607
▁Trừ	-10.6609
▁gas	-10.661
▁dạ	-10.6617
không	-10.6619
▁island	-10.662
▁Next	-10.662
▁Chiến	-10.6621
45	-10.6621
▁Chủ	-10.6623
▁Ram	-10.6626
▁dần	-10.6626
▁park	-10.6646
put	-10.6647
▁Liên	-10.665
▁excuse	-10.6663
▁Hurry	-10.6665
▁cãi	-10.6667
▁fuckin	-10.667
▁Jan	-10.6672
ổ	-10.6672
▁beg	-10.6674
▁canh	-10.668
▁angry	-10.6686
▁color	-10.6688
▁High	-10.6691
▁Sư	-10.6705
▁khô	-10.6706
▁suspect	-10.6707
▁Christmas	-10.6707
▁đáp	-10.6707
▁forgot	-10.6707
▁fit	-10.6723
▁Thêm	-10.6729
▁Doctor	-10.6729
▁girlfriend	-10.6729
▁Nik	-10.6731
▁ngã	-10.6736
▁thợ	-10.6738
▁Sand	-10.674
▁club	-10.6751
▁during	-10.6756
▁Walter	-10.6762
▁Ve	-10.677
▁hỗ	-10.677
▁Vô	-10.6785
-2	-10.679
yo	-10.6792
▁Sếp	-10.6795
▁Khốn	-10.6795
▁võ	-10.68
▁large	-10.6802
II	-10.6811
eb	-10.6813
▁difficult	-10.6817
▁Kevin	-10.6817
▁đăng	-10.6823
▁Dude	-10.6835
▁TH	-10.6836
ug	-10.6838
▁lang	-10.6838
▁miễn	-10.6839
fied	-10.6842
ử	-10.6842
▁Bá	-10.685
▁Pete	-10.6854
▁Nữ	-10.6859
▁witness	-10.6861
▁ngọn	-10.6862
▁lục	-10.687
▁bật	-10.6875
load	-10.6881
ới	-10.6882
▁Nhật	-10.6887
▁Van	-10.6889
▁Stark	-10.6891
▁piss	-10.6895
▁certain	-10.6898
▁rồng	-10.6904
▁Sometimes	-10.6906
▁Đánh	-10.6909
▁xâm	-10.691
▁Stand	-10.6919
▁weapons	-10.692
▁press	-10.6924
car	-10.6939
gie	-10.694
▁shop	-10.694
▁taste	-10.6942
af	-10.6943
▁chỉnh	-10.6948
▁khẩn	-10.6951
▁blind	-10.6951
▁remind	-10.6951
▁gate	-10.6951
▁Monica	-10.6952
▁Alright	-10.6952
▁mưa	-10.6953
▁neck	-10.6954
elect	-10.6955
▁Mời	-10.6957
rum	-10.6957
bar	-10.6958
▁spirit	-10.6973
▁Before	-10.6973
mble	-10.6973
Name	-10.6974
▁Morgan	-10.6975
▁cash	-10.6979
AL	-10.6992
▁Aw	-10.6997
▁ngực	-10.6999
▁liều	-10.7001
ắn	-10.7011
▁bought	-10.7018
▁dư	-10.7026
▁orders	-10.7035
▁Kết	-10.7039
▁Uncle	-10.7042
▁hối	-10.7045
▁500	-10.7046
ở	-10.7048
▁Los	-10.7054
▁Sil	-10.7056
▁computer	-10.7064
▁mưu	-10.7064
▁chiếu	-10.7067
▁nhiệt	-10.7068
▁Bản	-10.7068
▁thăng	-10.7071
▁Tập	-10.7076
ỵ	-10.7086
▁mảnh	-10.7086
▁discuss	-10.7086
▁lawyer	-10.7086
▁tống	-10.7087
▁standing	-10.7088
▁Sea	-10.7096
iều	-10.7098
▁ruin	-10.71
▁Doc	-10.7102
▁interested	-10.7105
▁sẻ	-10.7105
▁south	-10.7113
▁chứa	-10.7113
▁wind	-10.7115
ưởng	-10.7116
▁Gần	-10.7116
▁%	-10.713
▁Mexico	-10.7132
▁author	-10.7132
(	-10.7132
▁Wilson	-10.7134
▁Phá	-10.7135
▁sur	-10.714
▁US	-10.714
▁par	-10.7143
▁Gri	-10.7146
▁Six	-10.7147
▁bảng	-10.7156
▁Eric	-10.7163
▁Tha	-10.7172
rop	-10.7174
▁Detective	-10.7178
▁river	-10.7178
ache	-10.7179
▁thách	-10.7184
▁giờ	-10.7185
▁Old	-10.7187
ẹo	-10.7188
iêm	-10.7191
▁bia	-10.7197
▁Colonel	-10.7201
ED	-10.7202
▁miếng	-10.7202
▁moved	-10.7212
▁Mama	-10.7214
▁cất	-10.7216
▁Pen	-10.7224
▁monster	-10.7224
▁wild	-10.7225
▁unless	-10.7233
▁điếm	-10.7237
▁hà	-10.7238
▁Đêm	-10.7247
▁final	-10.7263
▁ni	-10.7263
ượng	-10.7267
▁ill	-10.7269
▁túy	-10.727
▁Mang	-10.727
pro	-10.7274
▁holding	-10.7279
▁Washington	-10.7293
▁instead	-10.7293
▁♫	-10.7294
Ma	-10.7294
▁direct	-10.7296
▁Thánh	-10.7297
▁nấu	-10.7301
▁Vợ	-10.7301
▁gan	-10.7303
ạc	-10.7308
▁Kid	-10.731
#	-10.7317
▁feed	-10.7318
▁thảo	-10.7326
▁chôn	-10.733
▁doanh	-10.7333
▁Thậm	-10.734
▁photo	-10.734
▁phiên	-10.7342
ướng	-10.7343
▁hum	-10.7358
▁lồ	-10.7362
▁Khu	-10.7366
▁Tuy	-10.7368
12	-10.7371
night	-10.7381
▁village	-10.7387
▁phiếu	-10.7388
▁Anyway	-10.7388
bon	-10.7391
▁tủ	-10.7395
ận	-10.741
▁Chinese	-10.741
▁Dạ	-10.7414
▁Vo	-10.7416
Con	-10.742
#7889;	-10.7434
▁ladies	-10.7434
▁Khỉ	-10.7436
▁Kỳ	-10.7436
▁guest	-10.7437
▁chấm	-10.7438
▁leader	-10.7444
▁dig	-10.7447
▁Ổn	-10.7448
▁allow	-10.7452
▁hoảng	-10.7457
▁quit	-10.7462
▁lord	-10.7463
▁gương	-10.7467
▁blame	-10.7468
tti	-10.7473
▁promised	-10.7473
die	-10.7474
▁bổ	-10.7474
▁Easy	-10.7481
▁Clear	-10.7481
▁ticket	-10.7482
▁hoại	-10.7482
▁Quân	-10.7483
▁Nor	-10.7484
gging	-10.7489
▁issue	-10.7494
▁Men	-10.7496
▁Den	-10.7499
▁Prince	-10.7502
▁Thuyền	-10.7504
▁green	-10.7506
▁path	-10.7509
zar	-10.7512
▁walking	-10.7516
▁nhá	-10.7518
▁mù	-10.7519
▁ngại	-10.7531
▁trúng	-10.7542
▁hô	-10.7543
▁dạo	-10.7548
ui	-10.7551
▁detail	-10.7552
▁CIA	-10.7552
▁Vua	-10.7552
▁Thá	-10.7554
▁góc	-10.7556
▁Hội	-10.7556
ote	-10.7561
▁add	-10.7568
▁locked	-10.7581
▁dick	-10.7583
▁Ali	-10.7591
▁nhiễm	-10.76
ux	-10.7608
▁niệm	-10.7624
▁Jones	-10.7624
▁Indian	-10.7633
ille	-10.7637
▁hall	-10.7639
▁Hàng	-10.764
Z	-10.7649
▁tước	-10.7653
▁term	-10.7664
▁rule	-10.7665
ữ	-10.7672
▁admit	-10.7672
▁dũng	-10.7672
▁si	-10.7675
▁page	-10.7675
ford	-10.768
▁nông	-10.768
fl	-10.7684
▁Tru	-10.7689
▁ngơi	-10.7699
▁quickly	-10.7707
▁cost	-10.7712
▁cap	-10.7712
▁đà	-10.7715
▁Sơ	-10.7717
▁danger	-10.7719
▁Đặc	-10.772
▁darling	-10.772
▁stone	-10.7723
▁Hunt	-10.7736
▁complete	-10.7737
▁lived	-10.7738
▁text	-10.7745
▁Báo	-10.7759
▁cur	-10.7766
▁virus	-10.7772
▁ngắn	-10.7772
▁Pull	-10.7774
ưa	-10.7784
ville	-10.7786
top	-10.779
▁Đẹp	-10.7793
▁Ready	-10.7793
▁Nước	-10.7797
▁gác	-10.7806
▁student	-10.7818
▁double	-10.7818
▁sec	-10.7818
▁Brian	-10.7828
▁interesting	-10.7837
▁Street	-10.7842
▁skin	-10.7853
▁Chandler	-10.7867
▁faith	-10.7867
▁đéo	-10.787
▁biên	-10.787
▁manage	-10.7876
▁lùng	-10.7878
▁lỡ	-10.7881
▁Hang	-10.7883
ata	-10.7888
▁military	-10.7891
▁definitely	-10.7916
▁correct	-10.7916
▁smoke	-10.7916
▁corner	-10.7918
▁dứt	-10.7941
▁learned	-10.7946
▁Cùng	-10.7953
▁Quan	-10.7955
▁Finch	-10.7966
▁boyfriend	-10.7966
uổi	-10.7966
▁Tiền	-10.7968
▁Simon	-10.7971
pha	-10.7976
pple	-10.7984
▁main	-10.7989
▁film	-10.7991
̉	-10.7991
▁robot	-10.7992
▁operation	-10.7992
stor	-10.7994
back	-10.8003
▁bẫy	-10.8015
▁speed	-10.8016
▁alright	-10.8016
▁Edward	-10.8017
200	-10.8018
▁jail	-10.802
▁bigger	-10.8023
▁mì	-10.8029
▁planet	-10.8032
▁lọ	-10.8038
▁Thử	-10.8045
▁Lẽ	-10.8047
ự	-10.8047
▁race	-10.8053
▁copy	-10.8061
▁impossible	-10.8066
▁strength	-10.8066
▁heaven	-10.8066
▁built	-10.8066
▁settle	-10.807
▁involved	-10.8072
▁mạch	-10.8076
▁Bla	-10.8081
▁ye	-10.8082
▁bone	-10.809
▁căng	-10.8093
▁Clark	-10.8095
▁thùng	-10.8096
ốn	-10.8099
▁Whoo	-10.8107
#7879;	-10.8116
▁California	-10.8116
▁worst	-10.8116
hood	-10.8119
▁image	-10.8121
▁map	-10.8123
▁Super	-10.8125
▁mát	-10.8125
▁Marty	-10.8127
▁Jean	-10.8139
▁third	-10.8143
ouch	-10.8147
room	-10.8155
▁bồ	-10.8166
▁load	-10.8166
▁Texas	-10.8166
▁mountain	-10.8166
▁Uống	-10.8166
▁giãn	-10.8166
▁Most	-10.8176
▁often	-10.8187
▁Won	-10.8189
▁study	-10.8192
▁condition	-10.8192
▁Cần	-10.8211
▁dì	-10.8212
▁stole	-10.8215
ggle	-10.8217
▁Grace	-10.8217
ết	-10.8234
▁Ted	-10.8238
▁Mặt	-10.8243
▁đỉnh	-10.8243
▁Better	-10.8249
▁họa	-10.8271
▁Đấy	-10.8272
▁thứ	-10.8279
▁Rand	-10.828
ừng	-10.8283
wn	-10.8287
▁starting	-10.8295
▁member	-10.8295
ola	-10.8301
▁môn	-10.8304
ành	-10.8306
▁-**	-10.8307
▁Cap	-10.8327
like	-10.8328
right	-10.8339
▁everywhere	-10.8347
▁powerful	-10.835
▁tụ	-10.8351
▁Đất	-10.8353
▁Nghĩa	-10.8355
▁Qua	-10.836
▁relationship	-10.8371
▁ủng	-10.8371
▁Thượng	-10.8374
▁harm	-10.8377
▁ngữ	-10.838
▁Nha	-10.8394
▁Guys	-10.8399
▁Trust	-10.8401
▁mạo	-10.8402
▁build	-10.8403
yard	-10.8404
▁má	-10.8406
▁lát	-10.841
▁tô	-10.8411
▁interest	-10.8412
▁Đá	-10.8415
▁Tay	-10.8416
#250;	-10.8423
▁World	-10.8423
▁perhaps	-10.8423
▁Kiểm	-10.8423
▁Lão	-10.8423
▁United	-10.8423
▁border	-10.8423
▁beginning	-10.8424
▁flight	-10.8426
huh	-10.8436
itz	-10.8444
▁Phụ	-10.8448
▁themselves	-10.8449
▁general	-10.8449
▁Reg	-10.8451
▁sỹ	-10.8454
ắc	-10.8459
▁môi	-10.8459
▁je	-10.8468
▁Cut	-10.8471
▁release	-10.8475
▁relax	-10.8475
ability	-10.8475
▁phức	-10.8478
▁Alice	-10.8483
▁xà	-10.8489
duct	-10.8491
▁sight	-10.8492
▁band	-10.8496
ggy	-10.8501
▁thổi	-10.8502
▁nãy	-10.8502
▁pretend	-10.8502
▁huấn	-10.8502
▁Annie	-10.8505
ồ	-10.8506
▁Today	-10.8506
▁demon	-10.8515
▁shooting	-10.852
15	-10.8523
Ư	-10.8528
▁cock	-10.853
▁crap	-10.8531
book	-10.8536
▁Ừm	-10.8549
▁experience	-10.8554
▁đậu	-10.8554
▁favorite	-10.8555
▁crew	-10.8559
▁certainly	-10.8563
▁Dùng	-10.8564
▁Sáng	-10.8564
▁disc	-10.8568
▁ourselves	-10.858
▁nút	-10.8581
▁Doug	-10.8594
▁listening	-10.8596
▁passed	-10.8605
▁hỏa	-10.8607
ữa	-10.8619
-3	-10.862
▁signal	-10.8627
CH	-10.8629
▁engine	-10.8633
▁Helen	-10.8634
▁Pol	-10.8635
▁mate	-10.8636
▁trăng	-10.8639
▁dương	-10.8648
▁official	-10.8652
RA	-10.8656
▁fucked	-10.8657
▁client	-10.866
▁design	-10.866
ất	-10.8661
rine	-10.8662
▁hè	-10.8664
inal	-10.8665
▁rob	-10.8665
▁nền	-10.8671
pho	-10.8671
▁Tí	-10.8672
▁phó	-10.8683
▁Lincoln	-10.8687
▁effect	-10.8687
▁1998.	-10.8687
▁Must	-10.8689
▁tuyên	-10.869
▁tape	-10.8695
uk	-10.8702
▁Walt	-10.8703
▁Mel	-10.8706
▁300	-10.8706
year	-10.871
▁taught	-10.8714
▁tho	-10.8718
▁dầu	-10.8719
cess	-10.8721
▁óc	-10.8724
▁điều	-10.8724
▁wine	-10.8732
▁anti	-10.8738
\	-10.874
▁bunch	-10.874
▁above	-10.8741
▁Thông	-10.8749
▁Hank	-10.875
uring	-10.8757
atus	-10.8766
▁slave	-10.8768
▁figured	-10.8768
▁angel	-10.877
▁dollars	-10.8784
▁lộn	-10.8784
▁hòn	-10.8788
▁Gordon	-10.8794
▁memory	-10.8794
▁Shaw	-10.8795
▁Ngủ	-10.8797
11	-10.8806
▁chở	-10.8806
▁nose	-10.8808
▁bow	-10.8809
▁sleeping	-10.882
#7841;	-10.8821
▁claim	-10.8821
▁stories	-10.8821
▁lunch	-10.8821
▁gói	-10.8825
matic	-10.8843
▁sàn	-10.8846
▁captain	-10.8848
▁dẹp	-10.8848
▁innocent	-10.8848
▁poison	-10.8848
▁empty	-10.8848
▁health	-10.8848
▁lovely	-10.8849
▁option	-10.885
▁lượt	-10.8851
▁cần	-10.8857
▁waste	-10.886
ằn	-10.8874
▁Tiểu	-10.8875
▁Chief	-10.8877
ích	-10.8878
▁xứ	-10.8879
Ô	-10.888
cco	-10.8881
▁Professor	-10.8903
▁purpose	-10.8903
▁Amy	-10.8905
▁Use	-10.8905
▁hook	-10.8913
TH	-10.8913
ID	-10.892
ứ	-10.8925
iễu	-10.8936
97	-10.8942
▁Sinh	-10.8943
kh	-10.8947
▁đếm	-10.895
▁Ryan	-10.8958
▁tách	-10.8962
▁proper	-10.8964
▁táo	-10.8964
▁pig	-10.8981
▁mụ	-10.8983
▁Toàn	-10.8985
▁Snow	-10.8985
▁Sho	-10.8985
▁Carol	-10.8991
▁closer	-10.8994
▁States	-10.9004
range	-10.9005
down	-10.9011
▁ghost	-10.9012
▁decide	-10.9017
▁Jeff	-10.9019
▁mượn	-10.902
▁dâm	-10.9023
95	-10.904
▁focus	-10.9041
▁marriage	-10.9068
▁betray	-10.9068
▁sự	-10.9078
▁Hill	-10.9089
▁Cass	-10.9089
▁driving	-10.9096
▁khùng	-10.9098
▁22	-10.9098
▁pan	-10.9098
▁Cá	-10.9099
▁Greg	-10.9099
▁upset	-10.91
house	-10.9104
▁cỏ	-10.9113
LA	-10.9116
▁Nằm	-10.9123
▁chìm	-10.9123
▁opera	-10.9124
▁hiding	-10.9127
75	-10.9133
▁cắn	-10.9136
▁Doesn	-10.9143
▁xá	-10.9145
▁pop	-10.9148
FF	-10.9148
▁Congratulations	-10.9151
▁Forget	-10.9151
78	-10.9154
▁dựa	-10.9154
▁Kéo	-10.9156
▁bó	-10.9162
▁Lady	-10.9163
▁lied	-10.9171
IT	-10.9178
▁Cà	-10.9195
▁moon	-10.9206
▁Chicago	-10.9207
▁knife	-10.9207
▁afternoon	-10.9207
▁crash	-10.9207
▁ngọt	-10.9207
▁fresh	-10.9207
▁Rằng	-10.9209
▁France	-10.9212
▁hét	-10.9215
▁kín	-10.9215
▁allowed	-10.9233
▁lui	-10.9235
▁twice	-10.9236
▁result	-10.9236
▁Bruce	-10.9242
word	-10.9246
-5	-10.9249
▁staying	-10.9253
▁Probably	-10.9264
▁wrote	-10.9264
▁Another	-10.9264
▁receive	-10.9264
▁nguyền	-10.9267
▁liền	-10.9267
▁móc	-10.9269
▁mỏ	-10.928
▁Hẹn	-10.9292
bit	-10.9293
▁uncle	-10.9295
▁tái	-10.9295
▁Gold	-10.9296
▁manh	-10.9297
ờ	-10.9302
▁Ward	-10.9308
run	-10.9309
▁giành	-10.9311
law	-10.9317
▁college	-10.9321
▁major	-10.9321
▁trứng	-10.9321
▁nhắm	-10.9321
▁Fran	-10.9324
▁rất	-10.9324
▁Head	-10.9334
▁cup	-10.9334
▁bill	-10.9342
▁beyond	-10.9349
▁criminal	-10.9349
▁Smith	-10.9349
chan	-10.9354
▁breath	-10.9366
▁Khó	-10.9367
ax	-10.937
wan	-10.9373
▁knee	-10.938
▁immediately	-10.938
▁helping	-10.938
▁nine	-10.9383
▁Chả	-10.939
▁scream	-10.9406
▁civil	-10.9406
▁Lùi	-10.9406
40	-10.9409
▁¶	-10.9412
60	-10.9413
▁Step	-10.9414
▁nhí	-10.942
ãi	-10.9424
▁vờ	-10.9426
▁hack	-10.9427
▁brave	-10.9431
▁mộng	-10.9432
▁Happy	-10.9435
▁dirty	-10.9435
▁thật	-10.9439
▁Bor	-10.9439
▁đc	-10.9448
▁Hơn	-10.9448
▁farm	-10.9455
▁current	-10.9464
▁Laurel	-10.9464
▁location	-10.9464
▁prefer	-10.9465
▁training	-10.9468
▁tỉ	-10.9474
▁Brad	-10.9482
▁size	-10.9489
▁phẫu	-10.9493
▁bottle	-10.9494
▁Talk	-10.9495
▁market	-10.9497
▁Jackson	-10.9505
▁sắt	-10.9508
fin	-10.9509
eon	-10.9511
▁view	-10.9515
▁Lock	-10.9517
▁Seven	-10.9521
idae	-10.9523
▁Port	-10.9537
▁Matthew	-10.9551
war	-10.9552
▁Thiếu	-10.9554
▁Unless	-10.9555
▁bridge	-10.9555
rma	-10.9558
pon	-10.956
▁Jesse	-10.9561
▁Hoàn	-10.9562
▁arrived	-10.9565
q	-10.9565
▁further	-10.958
▁summer	-10.9581
▁losing	-10.9586
▁plant	-10.9587
▁hồng	-10.9587
-0	-10.9589
ato	-10.959
▁từ	-10.9592
▁bloody	-10.9592
ền	-10.9603
▁Pra	-10.961
▁Jin	-10.9614
▁duty	-10.9617
▁Light	-10.9619
▁putting	-10.9632
▁Sai	-10.9637
▁require	-10.9638
▁crack	-10.9639
▁điệu	-10.9641
zu	-10.9655
▁ví	-10.9656
ội	-10.9665
▁teacher	-10.9665
▁conversation	-10.9668
▁Sherlock	-10.9668
▁asleep	-10.9668
▁trạm	-10.9668
▁strike	-10.9668
▁Castle	-10.9673
▁Jen	-10.9681
▁shoes	-10.9687
▁Cru	-10.9692
▁Harold	-10.9699
▁cởi	-10.9706
▁Lisa	-10.9707
▁Name	-10.9713
▁Kế	-10.9714
▁Pop	-10.9718
oài	-10.9721
ỳ	-10.9721
▁gắn	-10.9724
▁confirm	-10.9727
▁request	-10.9727
▁Rob	-10.9729
▁gián	-10.9733
▁quê	-10.9736
iếc	-10.9748
▁picked	-10.975
▁Khoảng	-10.9757
▁motherfucker	-10.9757
▁pregnant	-10.9757
▁phỏng	-10.9757
mark	-10.9757
▁roof	-10.976
▁swim	-10.976
▁Ơ	-10.9763
▁None	-10.9766
▁mini	-10.977
▁fail	-10.9774
hỉnh	-10.9774
bye	-10.9775
▁ức	-10.9775
▁Bru	-10.9778
▁80	-10.9779
▁đớn	-10.9786
▁$1	-10.9789
▁gốc	-10.9794
▁Nico	-10.9795
▁mũ	-10.98
▁damage	-10.9816
▁Count	-10.9817
▁Enough	-10.9818
▁Marcus	-10.9818
▁op	-10.9822
▁cow	-10.9836
13	-10.9842
▁church	-10.9848
▁Chứ	-10.9849
▁common	-10.9851
▁nhã	-10.9856
Tiếng	-10.9856
▁reading	-10.9871
▁bào	-10.9872
istic	-10.9873
▁ôm	-10.9876
▁apologize	-10.9876
▁became	-10.9876
▁giáp	-10.9878
▁chicken	-10.9879
▁Qui	-10.9879
▁tear	-10.988
rew	-10.9884
▁among	-10.9886
mail	-10.9887
▁Kinh	-10.9889
▁China	-10.9891
▁Đệ	-10.9892
▁failed	-10.9898
hoo	-10.9901
ằng	-10.9903
▁awful	-10.9906
28	-10.9907
▁Đô	-10.9909
▁local	-10.9912
▁TO	-10.9918
▁liệt	-10.9918
uân	-10.9919
▁Fish	-10.9925
▁cute	-10.993
▁Cast	-10.9932
▁Miller	-10.9937
▁closed	-10.9937
▁lông	-10.9939
▁Phần	-10.9939
▁tốn	-10.9943
▁Carrie	-10.9944
▁chóng	-10.9947
▁vote	-10.995
▁driver	-10.9952
ữ	-10.9954
▁assume	-10.9969
▁trần	-10.9972
▁nhục	-10.9972
▁Lý	-10.9974
▁Amen	-10.9976
▁Yi	-10.9977
▁Bay	-10.9995
▁Majesty	-10.9997
▁việc	-10.9997
▁sky	-11
▁hèn	-11.0001
ST	-11.0001
▁saving	-11.0002
▁bám	-11.001
79	-11.001
▁gay	-11.0012
uồng	-11.0017
▁eh	-11.0026
Le	-11.0027
▁smile	-11.0028
▁Liệu	-11.0031
▁Evan	-11.0035
▁tạ	-11.0055
▁Kit	-11.0055
▁Tro	-11.0057
▁judge	-11.0059
▁Lũ	-11.0065
▁Ever	-11.0067
▁Mục	-11.0067
▁egg	-11.0071
▁khôn	-11.0078
ntine	-11.0079
Do	-11.0085
▁Hal	-11.0086
▁Biến	-11.0091
ello	-11.0092
▁gởi	-11.0093
▁gang	-11.0115
▁xí	-11.0117
hold	-11.0124
▁Papa	-11.0125
▁bringing	-11.0126
▁slip	-11.0127
▁dump	-11.0128
▁yo	-11.0136
▁xạ	-11.0144
▁bullshit	-11.0151
▁Molly	-11.0151
▁hello	-11.0166
rov	-11.0169
▁cốc	-11.0175
▁Allen	-11.0183
▁Luôn	-11.0183
▁Yêu	-11.0185
▁phe	-11.0203
▁whose	-11.0204
▁upstairs	-11.0213
▁quyển	-11.0213
▁commit	-11.0216
▁dáng	-11.0218
▁seriously	-11.0233
▁simply	-11.0244
▁xóa	-11.0244
▁nâng	-11.0244
▁Vegas	-11.0244
▁Always	-11.0244
▁Until	-11.0244
▁cớm	-11.0244
▁Tư	-11.0244
▁bự	-11.0245
▁murdered	-11.0247
ridge	-11.0248
print	-11.0248
▁hiến	-11.0248
▁đấm	-11.0249
▁đần	-11.025
▁eating	-11.026
▁Rock	-11.027
▁Nà	-11.0273
▁Câm	-11.0273
▁Ethan	-11.0275
▁Close	-11.0276
▁Chuck	-11.0276
▁defend	-11.0276
▁pulled	-11.0278
▁trade	-11.0287
▁Hard	-11.0291
Oh	-11.0293
▁Lui	-11.0294
rich	-11.0297
Don	-11.0304
▁chair	-11.0306
▁herself	-11.0306
▁punish	-11.0306
▁Ngoài	-11.0308
ffe	-11.0317
87	-11.0318
UR	-11.0319
▁Kong	-11.0324
▁Day	-11.033
▁emergency	-11.0338
▁success	-11.0338
▁value	-11.0338
▁trượt	-11.0339
▁niên	-11.0339
▁%1	-11.0339
▁fellow	-11.034
▁Robin	-11.0345
▁River	-11.0346
▁Carter	-11.0346
▁mến	-11.0348
▁chợ	-11.0351
//	-11.0362
▁research	-11.0369
▁spec	-11.0375
▁dĩ	-11.0378
88	-11.0382
OW	-11.0383
▁Hong	-11.0384
▁bông	-11.0386
▁nhấ	-11.0389
òi	-11.0392
▁Nu	-11.0401
▁Except	-11.0402
▁Sounds	-11.0402
▁played	-11.0409
▁rắn	-11.041
▁pháo	-11.0413
▁wondering	-11.0416
▁Save	-11.0427
▁gãy	-11.0429
▁Lily	-11.0429
▁perform	-11.0434
▁soft	-11.0435
▁nature	-11.0439
▁medical	-11.0439
▁Hầu	-11.0439
▁auto	-11.0439
▁Water	-11.0442
▁sói	-11.0445
bling	-11.0453
▁Stone	-11.0456
▁Thư	-11.0458
▁heavy	-11.0465
▁usually	-11.047
▁Ask	-11.0478
▁organ	-11.0487
▁Cầm	-11.0487
¡	-11.0497
▁recognize	-11.0497
▁Đặt	-11.0497
▁source	-11.0497
▁đít	-11.0497
▁split	-11.0497
▁Quên	-11.05
▁hắn	-11.05
▁kĩ	-11.05
▁trôi	-11.0502
▁sữa	-11.0504
▁shame	-11.0505
SS	-11.0506
town	-11.0511
▁Sĩ	-11.0516
▁print	-11.052
▁Had	-11.052
#7897;	-11.0529
▁Bennet	-11.0529
▁process	-11.053
▁loose	-11.0537
▁trì	-11.0539
▁flying	-11.054
▁vả	-11.0553
Ha	-11.0558
▁fired	-11.0559
▁Joseph	-11.0561
▁tới	-11.0561
▁provide	-11.0561
▁bathroom	-11.0561
▁hoping	-11.0564
▁kiên	-11.0566
▁Julie	-11.0567
98	-11.057
▁nhốt	-11.057
how	-11.0578
▁Africa	-11.0593
▁Tomorrow	-11.0593
▁secure	-11.0595
▁notice	-11.0596
▁prisoner	-11.0601
▁21	-11.061
là	-11.061
▁Eu	-11.0616
=	-11.0618
▁sold	-11.0625
▁cent	-11.0626
▁stat	-11.0627
▁Julia	-11.0629
▁nướng	-11.063
▁Fucking	-11.0631
▁nowhere	-11.0635
▁pp	-11.0642
▁Brown	-11.0659
▁contain	-11.0659
▁absolutely	-11.0659
▁surprised	-11.066
▁leo	-11.066
▁mask	-11.0661
▁Hiện	-11.0663
▁ngầm	-11.0663
▁wire	-11.0664
▁gấu	-11.0667
▁xô	-11.0671
▁sweetheart	-11.069
▁teeth	-11.069
▁bão	-11.069
▁hạng	-11.0692
▁huge	-11.0693
▁chết	-11.0694
▁thối	-11.0697
kov	-11.0699
▁thập	-11.0701
rian	-11.0702
▁nhát	-11.0712
0	-11.0714
▁mỏi	-11.0715
▁due	-11.0721
▁paint	-11.0721
#7875;	-11.0723
▁enemies	-11.0723
uyên	-11.0725
▁Chiếc	-11.0725
▁mồ	-11.0725
▁chọc	-11.0729
▁Walker	-11.0734
▁dò	-11.0738
▁Cầu	-11.074
▁Yep	-11.0745
▁heading	-11.0753
▁Mommy	-11.0758
▁Chơi	-11.076
▁Vũ	-11.0761
▁bá	-11.0763
▁mét	-11.0767
▁Land	-11.0774
ếu	-11.0781
▁Sean	-11.0786
▁lưỡi	-11.0789
▁arrange	-11.0789
▁Jerry	-11.079
▁Quý	-11.079
▁quảng	-11.0796
▁lò	-11.0797
▁Marie	-11.08
▁connect	-11.0811
▁awesome	-11.0822
▁Blue	-11.0822
▁vầy	-11.0831
view	-11.0844
where	-11.0854
#7873;	-11.0855
▁pocket	-11.0855
▁bodies	-11.0855
▁xé	-11.0857
▁vội	-11.0861
▁Home	-11.0862
▁Jason	-11.0867
hép	-11.0867
▁faster	-11.0871
▁dở	-11.0871
-6	-11.0875
▁Lieutenant	-11.0888
▁tuyết	-11.0888
▁Know	-11.0888
US	-11.0894
▁showed	-11.0896
▁stage	-11.0901
▁Vị	-11.0902
And	-11.0902
▁Andrew	-11.0903
▁Aye	-11.091
▁fella	-11.0916
-4	-11.0916
▁port	-11.092
#7899;	-11.0921
▁advice	-11.0921
▁hôi	-11.0926
▁Their	-11.0926
▁held	-11.0927
▁Bond	-11.093
zy	-11.0931
▁thải	-11.0938
ấ	-11.0938
▁taxi	-11.0941
▁Flo	-11.095
▁kitchen	-11.0955
▁host	-11.0966
▁Gene	-11.0968
Chúng	-11.0968
01	-11.0976
▁trú	-11.0977
▁ung	-11.0984
▁Elizabeth	-11.0988
▁Xuống	-11.0988
▁bottom	-11.0988
▁switch	-11.0988
▁01:	-11.0989
▁Play	-11.0989
▁tươi	-11.099
▁kỉ	-11.0994
32	-11.1015
▁cương	-11.1017
▁Kai	-11.102
▁Bull	-11.1022
#234;	-11.1022
▁whether	-11.1022
script	-11.1022
▁Guess	-11.1023
▁dumb	-11.1024
Có	-11.1026
▁obviously	-11.1027
▁90	-11.1028
▁daddy	-11.1028
▁hân	-11.1033
▁Lance	-11.1038
▁nhi	-11.1041
▁east	-11.1048
▁develop	-11.1056
▁energy	-11.1056
▁sacrifice	-11.1056
▁đuối	-11.1056
▁đuôi	-11.1056
▁DNA	-11.1056
▁apart	-11.1057
▁hận	-11.1064
▁Night	-11.1065
vie	-11.1067
▁chip	-11.1069
▁cấm	-11.1069
▁Hall	-11.1071
▁mạn	-11.1074
▁Tiếng	-11.1077
▁Giải	-11.1078
▁greatest	-11.1081
cHFF	-11.109
▁Jordan	-11.109
▁language	-11.109
▁neither	-11.109
▁witch	-11.1091
▁weekend	-11.1093
▁wing	-11.1107
14	-11.112
▁itself	-11.1124
▁xóm	-11.1124
gram	-11.1126
▁kẹo	-11.1126
▁Without	-11.1127
▁Send	-11.1127
▁Điện	-11.1128
▁23	-11.1128
▁queen	-11.1128
▁Christian	-11.1128
▁gotten	-11.1133
▁gỡ	-11.1134
▁Pet	-11.1135
▁grave	-11.1137
▁rip	-11.1144
▁Drop	-11.1145
▁Sergeant	-11.1158
▁credit	-11.1158
▁earlier	-11.1158
▁regret	-11.1158
▁đĩa	-11.1158
▁contract	-11.1158
▁truly	-11.1158
▁Copy	-11.1158
▁object	-11.1159
▁Thay	-11.1171
▁tie	-11.1172
▁Boss	-11.1179
▁tuyến	-11.1192
▁Reese	-11.1192
▁Brand	-11.1198
-7	-11.1201
▁Part	-11.1208
hole	-11.1212
▁thụ	-11.1212
▁Off	-11.1214
▁vol	-11.1219
▁nervous	-11.1227
▁terrorist	-11.1229
▁miền	-11.123
▁Beth	-11.1233
▁lầu	-11.1238
▁chăng	-11.1238
▁bóp	-11.1239
▁Gun	-11.1244
iện	-11.126
▁button	-11.1261
▁Kiểu	-11.1261
▁embarrass	-11.1261
▁fought	-11.1261
▁tởm	-11.1261
▁nghiện	-11.1262
▁Shall	-11.1262
▁Morning	-11.1263
▁Đối	-11.1267
▁Hồi	-11.1283
▁flu	-11.1286
▁particular	-11.1296
▁Wayne	-11.1296
▁Police	-11.1297
▁lesson	-11.1304
▁fate	-11.1315
▁responsible	-11.133
▁written	-11.133
▁creature	-11.133
▁planning	-11.1334
▁MA	-11.1336
▁create	-11.1343
▁Tử	-11.1344
▁ngôn	-11.135
83	-11.135
▁thoảng	-11.1362
▁attempt	-11.1365
▁natural	-11.1365
▁remove	-11.1365
▁insane	-11.1366
▁ought	-11.1367
▁chief	-11.1368
▁Katie	-11.137
▁vây	-11.138
▁Francis	-11.1399
▁disappoint	-11.14
▁mười	-11.14
▁Holmes	-11.14
▁Work	-11.1401
▁dropped	-11.1402
▁Quick	-11.1406
Gi	-11.1409
▁spa	-11.1414
▁trừng	-11.1429
▁necessary	-11.1435
▁writing	-11.1435
▁Officer	-11.1435
▁mềm	-11.1435
▁Shoot	-11.1437
▁fake	-11.1447
▁Cửa	-11.1449
east	-11.1463
▁Vincent	-11.1471
▁bụi	-11.1471
▁Goodbye	-11.1473
▁Tướng	-11.1478
▁Lời	-11.148
▁Sen	-11.1491
▁Nghĩ	-11.1493
16	-11.1499
▁Scar	-11.1505
▁Brody	-11.1508
▁khối	-11.1509
▁kem	-11.1525
90	-11.1529
▁employ	-11.1541
▁Trans	-11.1544
▁drag	-11.1545
▁Lâu	-11.1551
▁ven	-11.1566
▁Absolutely	-11.1577
▁Sweet	-11.1577
▁engage	-11.1577
▁đắn	-11.1586
▁connection	-11.1589
#7911;	-11.1613
▁ngẩn	-11.1613
1000}	-11.1613
▁Tyler	-11.1614
▁spell	-11.1617
▁hương	-11.1627
▁há	-11.1633
▁lẻ	-11.1637
▁convince	-11.1648
▁Hannah	-11.1648
▁tiệm	-11.1648
▁khuôn	-11.1652
hand	-11.1653
just	-11.1654
▁rũ	-11.1655
▁thô	-11.1657
▁Sắp	-11.1661
▁dry	-11.1664
▁bắc	-11.1666
▁đạp	-11.1684
▁lùi	-11.1684
▁bảy	-11.1685
▁storm	-11.1685
▁speaking	-11.1688
▁breathe	-11.171
rated	-11.1713
▁document	-11.1721
▁Speak	-11.1721
▁defeat	-11.1721
▁Buddy	-11.1721
▁pressure	-11.1722
▁Luke	-11.1728
hl	-11.1733
ỹ	-11.1744
`	-11.1757
▁character	-11.1757
▁Follow	-11.1757
▁custom	-11.1757
▁Harvey	-11.1757
▁Isabel	-11.1757
▁pants	-11.1759
▁player	-11.1764
▁safety	-11.1769
▁depend	-11.1771
▁oil	-11.1776
▁tàng	-11.1785
▁nụ	-11.1788
▁Đứa	-11.1793
▁huyết	-11.1793
▁desk	-11.1794
▁bê	-11.18
▁Linh	-11.1803
▁cược	-11.1805
iệu	-11.1805
▁Santa	-11.1815
▁trial	-11.1819
▁ổ	-11.1821
▁loss	-11.1827
▁Coulson	-11.183
▁Dragon	-11.183
▁Gentlemen	-11.183
▁ridiculous	-11.183
▁Blood	-11.183
▁xoay	-11.183
▁Cooper	-11.183
▁odd	-11.183
▁aware	-11.1831
70	-11.1832
▁crying	-11.1833
▁destroyed	-11.1837
uction	-11.1839
▁State	-11.1862
▁Chàng	-11.1864
▁introduce	-11.1866
▁refuse	-11.1866
▁Besides	-11.1866
▁bull	-11.1868
▁Wake	-11.1881
▁Hồng	-11.1884
graph	-11.189
▁Lou	-11.1894
Q	-11.1897
▁opportunity	-11.1903
▁Bệnh	-11.1903
▁freedom	-11.1903
▁Ấn	-11.1903
▁2005	-11.1906
==	-11.191
▁site	-11.1918
ằng	-11.1923
▁mồi	-11.1934
▁abandon	-11.194
▁wheel	-11.194
▁Grant	-11.194
▁KDE	-11.194
▁Fitz	-11.1943
▁Sur	-11.1951
▁Giả	-11.1966
▁weight	-11.1974
—	-11.1977
▁plenty	-11.1977
▁Major	-11.1977
▁Girl	-11.1977
▁Same	-11.198
▁Sister	-11.1985
▁dâu	-11.1986
▁boot	-11.1992
♪	-11.1992
▁Dì	-11.2011
▁throat	-11.2014
▁Linda	-11.2019
▁Chân	-11.2022
stone	-11.2025
▁Mất	-11.2032
▁Hope	-11.2049
18	-11.205
▁cousin	-11.2051
▁Ana	-11.2052
▁repeat	-11.2052
65	-11.2066
0.000	-11.2066
▁lặn	-11.208
▁mạc	-11.2087
▁Oxford	-11.2089
▁possibly	-11.2089
▁interview	-11.2089
▁awake	-11.209
▁data	-11.209
▁đầu	-11.209
▁hiếp	-11.2091
25	-11.2102
▁earn	-11.2104
▁Dick	-11.2125
▁bồi	-11.2131
▁giật	-11.2133
▁Thị	-11.2142
$	-11.2142
ddy	-11.2145
85	-11.2146
▁Vale	-11.2154
je	-11.2155
▁attacked	-11.2161
▁Felix	-11.2164
▁Caesar	-11.2164
▁kém	-11.2164
▁Spartacus	-11.2164
▁shock	-11.2166
▁gather	-11.2169
▁lô	-11.2169
▁Under	-11.2174
▁đàng	-11.2179
▁pee	-11.2182
▁lung	-11.2191
action	-11.2194
▁Pretty	-11.2202
▁Maggie	-11.2203
▁Flash	-11.2204
▁2000	-11.2217
▁spare	-11.2217
▁Free	-11.222
▁invest	-11.2223
▁đê	-11.2231
▁ân	-11.2233
▁Relax	-11.224
▁degree	-11.224
▁ngắm	-11.224
▁Địa	-11.224
▁Cisco	-11.224
▁loyal	-11.2241
▁devil	-11.2244
▁khoác	-11.2266
ural	-11.2277
#7855;	-11.2278
▁advance	-11.2278
▁warrior	-11.2278
▁Luật	-11.2282
eller	-11.2291
▁justice	-11.2313
#7913;	-11.2317
{	-11.2317
▁giỡn	-11.2317
▁Susan	-11.2318
▁Zi	-11.232
▁tỷ	-11.232
▁nation	-11.2322
▁Hiro	-11.2325
▁letting	-11.2333
▁bath	-11.2335
▁psych	-11.2342
▁painting	-11.2347
▁schedule	-11.2355
▁Ladies	-11.2355
▁sweat	-11.2355
▁detective	-11.2356
▁Cole	-11.2358
▁Ob	-11.2358
▁Tiên	-11.236
▁Ahh	-11.2362
▁Gary	-11.2368
▁Chó	-11.2377
▁Edit	-11.2388
▁NO	-11.2393
▁Malcolm	-11.2394
▁Được	-11.2394
▁Again	-11.2394
▁snow	-11.2394
▁Berlin	-11.2396
▁ngũ	-11.2398
▁towards	-11.2398
▁tiêm	-11.24
even	-11.2403
▁Lối	-11.2403
▁chest	-11.2418
▁Mak	-11.2427
▁Trò	-11.2427
▁model	-11.2433
▁cò	-11.2435
ological	-11.2446
▁kệ	-11.2446
▁Cao	-11.2457
▁vehicle	-11.2471
▁famous	-11.2471
▁Chồng	-11.2476
▁plate	-11.248
▁Đàn	-11.2484
▁lố	-11.2493
▁birth	-11.251
▁represent	-11.251
Ó	-11.251
▁shadow	-11.251
▁Second	-11.251
▁Anyone	-11.2514
▁Larry	-11.2517
▁Jew	-11.2524
▁vỏ	-11.2525
▁cheat	-11.2527
▁Tổ	-11.2531
▁created	-11.2536
▁Đem	-11.254
▁bực	-11.2541
▁đố	-11.2547
▁approach	-11.255
▁easier	-11.255
▁practice	-11.255
▁science	-11.255
▁Boston	-11.255
▁photograph	-11.255
▁lift	-11.2554
04	-11.2554
▁thiêu	-11.2556
▁mập	-11.2562
▁prepared	-11.2565
haw	-11.258
05	-11.2584
▁bite	-11.2588
▁National	-11.2589
▁Cộng	-11.2589
▁Len	-11.2591
▁specific	-11.2597
▁báu	-11.26
▁clock	-11.2606
▁Clay	-11.2617
▁rise	-11.262
▁Both	-11.2623
▁confess	-11.2629
▁barely	-11.2629
▁trace	-11.2631
▁cứ	-11.2638
yện	-11.2645
À	-11.2646
▁Dead	-11.2646
▁covered	-11.2659
▁rescue	-11.2668
▁trigger	-11.2668
▁Hỏi	-11.2668
▁ugly	-11.2668
▁punch	-11.2668
▁subject	-11.2669
▁project	-11.267
▁intend	-11.267
▁nuts	-11.2672
▁xăng	-11.2675
▁bucks	-11.2676
▁gỗ	-11.2679
▁dường	-11.2679
Yeah	-11.2686
▁loud	-11.2687
▁Parker	-11.2695
▁restaurant	-11.2708
▁nurse	-11.2708
TER	-11.2716
path	-11.2718
▁select	-11.272
OO	-11.2724
#7891;	-11.2748
▁hidden	-11.2748
▁suýt	-11.2748
▁silly	-11.2748
▁Lyn	-11.275
▁proof	-11.2751
▁nhất	-11.2752
▁stranger	-11.2752
▁Lucas	-11.2753
▁Life	-11.2755
▁trọ	-11.2767
▁Nina	-11.2772
▁Ngon	-11.2778
come	-11.2779
▁Phoebe	-11.2788
▁huống	-11.2788
▁assassin	-11.2788
▁tịch	-11.2788
▁avoid	-11.2788
▁naked	-11.2788
▁cancer	-11.2788
▁Thuốc	-11.2789
▁stock	-11.2793
▁khích	-11.2795
▁tip	-11.2798
▁Arch	-11.2802
▁agreed	-11.2807
▁27	-11.2808
▁dev	-11.281
▁48	-11.2819
▁Publishing	-11.2829
▁Vừa	-11.2829
▁original	-11.2829
▁gợi	-11.2829
▁rent	-11.2829
▁forgotten	-11.283
▁Đằng	-11.2831
iddle	-11.2839
▁tò	-11.2839
▁milk	-11.2843
▁Vol	-11.2847
Hẳn	-11.2869
▁Cậu	-11.2869
▁Seriously	-11.2869
▁viễn	-11.2869
▁Giỏi	-11.2869
▁Nhảy	-11.2869
▁device	-11.287
▁genius	-11.287
▁trước	-11.2871
▁Things	-11.2876
▁Phí	-11.2878
▁dragon	-11.2878
▁ngớ	-11.2879
▁Beau	-11.288
▁tank	-11.2885
°	-11.291
▁Charlotte	-11.291
▁Raymond	-11.291
▁comfortable	-11.2911
▁vãi	-11.2914
▁vân	-11.2917
▁xích	-11.2919
▁hỗn	-11.2924
▁cấu	-11.2932
▁Fla	-11.2941
#7869;	-11.295
▁Ngoại	-11.295
▁ngoái	-11.295
▁separate	-11.2951
39	-11.2955
29	-11.2958
▁wave	-11.2964
57	-11.2968
▁Hải	-11.2973
▁Gru	-11.2986
▁sail	-11.2986
#226;	-11.2991
ñ	-11.2991
▁suicide	-11.2991
▁truyện	-11.2991
▁Jacob	-11.2991
▁tháo	-11.2992
▁Army	-11.2992
▁alarm	-11.2993
▁vườn	-11.2994
▁suddenly	-11.2996
46	-11.3009
▁cỗ	-11.301
▁tân	-11.3015
▁Alan	-11.3018
▁curse	-11.3024
▁trục	-11.3029
▁Felicity	-11.3033
▁Wyatt	-11.3033
▁gánh	-11.3033
▁gồm	-11.3033
▁Tàu	-11.3033
▁desert	-11.3033
▁vision	-11.3035
▁70	-11.3041
▁guilty	-11.3042
izing	-11.3052
Yes	-11.3053
▁exam	-11.3055
That	-11.3057
▁Oz	-11.306
▁opinion	-11.3074
▁Phương	-11.308
▁stolen	-11.3081
▁xỉ	-11.3081
▁cuồng	-11.3083
▁bơ	-11.3095
▁legal	-11.3101
ification	-11.3107
47	-11.3112
▁several	-11.3115
▁cắm	-11.3115
craft	-11.3117
▁piano	-11.3117
ounce	-11.3121
Man	-11.3142
▁Gen	-11.3151
▁lower	-11.3156
▁affect	-11.3157
▁Đơn	-11.3157
▁ốm	-11.3158
▁shake	-11.3158
▁Tonight	-11.3162
▁đẻ	-11.3169
▁Fox	-11.3172
▁Feel	-11.3174
▁mix	-11.3176
▁hunting	-11.3198
▁challenge	-11.3199
▁biggest	-11.3199
▁hiển	-11.3199
▁launch	-11.3199
▁quarter	-11.3199
▁example	-11.3199
hear	-11.3201
▁Minh	-11.3201
▁package	-11.3202
▁Buck	-11.3205
▁gục	-11.3207
▁pair	-11.321
Nó	-11.322
ấy	-11.3236
cover	-11.3241
▁#272;	-11.3241
▁Central	-11.3241
▁dưỡng	-11.3241
▁lắm	-11.3241
▁spread	-11.3243
▁khoẻ	-11.3243
▁bright	-11.3248
▁cab	-11.3248
▁Hành	-11.3253
▁Angel	-11.3267
▁Anne	-11.327
▁rub	-11.3273
▁Europe	-11.3283
▁brief	-11.3283
▁mil	-11.3283
▁lợn	-11.3283
▁Glad	-11.3287
▁Angeles	-11.3288
▁Ugh	-11.3289
▁đòn	-11.3292
▁bleeding	-11.3294
ỷ	-11.3317
ü	-11.3326
▁familiar	-11.3326
▁speech	-11.3326
▁Hiệp	-11.3326
▁capture	-11.3326
▁Vic	-11.3327
▁Loại	-11.3328
▁diệu	-11.3329
▁Such	-11.3336
**"	-11.3341
▁coat	-11.3346
▁Bank	-11.3354
06	-11.336
▁tháp	-11.3368
▁váy	-11.3368
▁Lewis	-11.3368
▁nhảm	-11.3368
▁vứt	-11.3368
▁tongue	-11.3369
▁Teddy	-11.3371
ường	-11.3372
▁Norman	-11.3373
▁Mới	-11.3376
ồi	-11.3383
▁thao	-11.3387
55	-11.3408
▁Special	-11.3411
iếp	-11.3411
▁ancient	-11.3411
▁buried	-11.3411
▁nhiều	-11.3411
▁ruột	-11.3412
▁911	-11.3412
▁somehow	-11.3417
▁gối	-11.3419
▁goodbye	-11.3419
31	-11.3438
▁sandwich	-11.3454
▁Merlyn	-11.3454
▁shirt	-11.3454
▁weather	-11.3454
▁attract	-11.3454
▁transfer	-11.3455
▁Alpha	-11.3456
▁Eight	-11.3465
▁MAN	-11.3469
▁Pick	-11.3483
▁climb	-11.3497
▁Sheriff	-11.3497
▁Quỷ	-11.3497
▁Karen	-11.3498
▁Grab	-11.35
▁Aunt	-11.35
▁Earl	-11.3504
▁Commander	-11.3505
▁~	-11.3507
43	-11.3508
ably	-11.351
▁manager	-11.3515
▁breathing	-11.3528
▁noticed	-11.3529
▁bug	-11.3539
hẳng	-11.354
▁tunnel	-11.354
▁possess	-11.354
▁ð	-11.354
▁Patrick	-11.3541
49	-11.3542
▁Philip	-11.3542
▁Angela	-11.3553
▁rope	-11.3555
38	-11.3563
03	-11.3568
ớp	-11.358
▁Japanese	-11.3584
▁available	-11.3584
▁breakfast	-11.3584
▁medicine	-11.3584
▁Aaron	-11.3584
▁iron	-11.3591
▁Fight	-11.3593
▁Bridge	-11.3595
▁cột	-11.36
▁usual	-11.3602
▁phà	-11.3603
▁Đề	-11.3604
▁nearly	-11.3608
▁Eat	-11.3612
▁26	-11.3617
▁Mười	-11.3627
▁complain	-11.3627
▁investigation	-11.3627
▁limit	-11.3628
▁#273;#226;	-11.3628
▁attend	-11.3628
▁stronger	-11.3629
▁suất	-11.3631
▁Thiết	-11.3633
▁chép	-11.3634
▁vĩnh	-11.3636
▁củ	-11.3637
▁direction	-11.3648
▁wise	-11.367
▁Company	-11.3671
▁excited	-11.3671
#432;#7907;	-11.3671
▁sale	-11.3671
▁Vậy	-11.3672
▁Bravo	-11.3672
▁hostage	-11.3673
▁Karl	-11.3673
▁Yên	-11.3676
▁trói	-11.3676
▁trinh	-11.3684
Á	-11.3693
▁Pass	-11.3711
▁Internet	-11.3715
▁Break	-11.3715
▁hiếm	-11.3718
▁capable	-11.3718
▁Death	-11.372
▁grew	-11.3721
▁Potter	-11.3721
▁Tệ	-11.3722
▁beast	-11.3723
▁Plan	-11.3734
▁Half	-11.3737
▁Division	-11.3759
▁Ước	-11.3759
▁góp	-11.3759
▁vốn	-11.3759
▁alien	-11.3761
▁borrow	-11.3762
iếng	-11.3763
▁recover	-11.3763
▁Marcel	-11.3763
▁rằng	-11.3764
▁Guard	-11.3768
▁sweetie	-11.377
ượ	-11.3772
▁rẻ	-11.3778
▁Mô	-11.3785
09	-11.3797
▁responsibility	-11.3804
▁buýt	-11.3804
▁British	-11.3804
▁Dậy	-11.3804
▁cậy	-11.3804
▁Kelly	-11.3804
86	-11.3807
▁chuông	-11.3808
▁nếu	-11.3809
▁warning	-11.3809
▁bound	-11.3811
▁strip	-11.3816
▁perfectly	-11.383
▁Jess	-11.3845
▁ngửi	-11.3849
▁Âu	-11.3849
▁pizza	-11.3849
▁expert	-11.3849
▁Kyle	-11.3849
▁nghèo	-11.3849
▁Terry	-11.3851
▁Chase	-11.3859
▁Force	-11.3859
67	-11.3859
22	-11.386
ức	-11.3862
▁đồ	-11.3862
▁Tắt	-11.3866
▁Josh	-11.387
42	-11.3879
water	-11.3889
▁destiny	-11.3893
▁afford	-11.3893
▁Hawk	-11.3894
▁huyền	-11.3896
▁talent	-11.3896
▁stink	-11.3899
▁quét	-11.39
▁rush	-11.39
▁ghen	-11.3902
▁kê	-11.3905
▁discovered	-11.3912
what	-11.3916
ước	-11.3937
▁Anybody	-11.3938
▁miracle	-11.3938
▁nghìn	-11.3938
▁rào	-11.3938
▁Sáu	-11.3938
▁loạt	-11.3939
▁bút	-11.3939
▁debt	-11.394
▁History	-11.394
▁Finn	-11.3944
▁Glen	-11.3949
▁ngộ	-11.3953
▁rough	-11.3954
▁shape	-11.396
▁Slow	-11.3969
▁chiế	-11.398
agger	-11.3981
#7847;	-11.3984
#7915;	-11.3984
uộc	-11.3984
▁Catherine	-11.3984
▁England	-11.3984
▁demand	-11.3984
▁airport	-11.3986
▁Act	-11.3992
▁refer	-11.3994
▁invited	-11.4002
76	-11.4017
▁desire	-11.4029
▁Albert	-11.403
hee	-11.403
▁Moses	-11.4031
▁Jenny	-11.4032
▁property	-11.4032
▁Logan	-11.4036
▁castle	-11.4036
▁Tầ	-11.404
▁assure	-11.4044
▁Manny	-11.4045
▁Dark	-11.4065
▁nộp	-11.4075
▁trùm	-11.4075
▁mercy	-11.4075
▁Wolf	-11.4076
▁bề	-11.4077
▁seal	-11.4081
17	-11.4082
▁spin	-11.4082
▁Island	-11.4091
▁đương	-11.4091
82	-11.4096
▁Súng	-11.41
▁families	-11.4121
▁horrible	-11.4121
▁professional	-11.4121
▁vững	-11.4121
▁yourselves	-11.4121
▁thỉu	-11.4121
▁dày	-11.4121
▁lỗi	-11.4123
▁center	-11.4146
▁liar	-11.415
▁phô	-11.4159
#417;	-11.4167
#7885;	-11.4167
▁downstairs	-11.4167
▁ngưỡng	-11.4167
▁thiệp	-11.4167
▁Alexander	-11.4167
▁mới	-11.4167
▁staff	-11.4167
▁dozen	-11.4167
▁Taylor	-11.4168
▁Phong	-11.417
▁cake	-11.4175
▁hired	-11.4176
▁châu	-11.4177
▁citizen	-11.4213
▁disturb	-11.4213
▁exchange	-11.4213
▁Cameron	-11.4213
▁Sunday	-11.4213
▁female	-11.4213
▁Ashley	-11.4213
▁Amanda	-11.4213
▁Fiona	-11.4213
▁torture	-11.4213
▁hít	-11.4213
▁lót	-11.4214
▁clue	-11.4214
▁giết	-11.4215
▁Gotham	-11.4215
▁treatment	-11.4218
▁Trường	-11.4219
vor	-11.4225
▁Korea	-11.4227
▁quyế	-11.4228
meter	-11.4228
▁cabin	-11.4237
▁Game	-11.4239
▁thà	-11.4258
ö	-11.4259
▁treasure	-11.426
▁cuộn	-11.426
▁accus	-11.426
▁indeed	-11.4261
▁Whit	-11.4262
▁Dễ	-11.4271
▁psycho	-11.4275
▁Forgive	-11.4306
▁cream	-11.4307
▁style	-11.4307
▁#273;#243;	-11.4309
▁Tuần	-11.4309
▁legend	-11.4309
How	-11.4312
▁edge	-11.4314
▁Nhắ	-11.4328
▁Thú	-11.4333
▁đề	-11.4334
▁Victoria	-11.4347
▁35	-11.4351
▁Almost	-11.4353
▁incredible	-11.4353
▁vẫ	-11.4353
▁fortune	-11.4353
▁Minister	-11.4353
▁threw	-11.4358
▁toilet	-11.4359
face	-11.4365
▁Cheers	-11.4369
▁Exactly	-11.44
▁jerk	-11.4402
born	-11.4404
▁route	-11.4406
21	-11.4407
▁tuân	-11.4413
▁Tội	-11.4413
poli	-11.4415
▁Might	-11.4419
▁solve	-11.4426
@	-11.4448
▁complicated	-11.4448
▁journey	-11.4448
▁mươi	-11.4448
▁Secret	-11.4448
▁kingdom	-11.4448
▁rủa	-11.4448
▁Either	-11.4448
▁gạt	-11.4448
▁quỹ	-11.4449
▁lén	-11.445
▁Nguyên	-11.445
▁Phó	-11.4458
500	-11.4472
#7903;	-11.4495
▁Lannister	-11.4495
▁Scofield	-11.4495
▁ướt	-11.4495
▁Cưng	-11.4496
▁đạc	-11.45
▁Bánh	-11.4503
▁setting	-11.451
▁link	-11.4513
▁chick	-11.4527
89	-11.4532
▁bệ	-11.4537
ốc	-11.4538
▁plea	-11.4539
▁slept	-11.4543
▁replace	-11.4543
▁Barney	-11.4545
▁sống	-11.4553
▁Mắt	-11.4558
Và	-11.456
▁câm	-11.4574
ấu	-11.4591
▁Scarlett	-11.4591
▁circle	-11.4591
▁Kiếm	-11.4593
▁billion	-11.4605
▁Cool	-11.4624
▁lú	-11.4637
▁beauty	-11.464
▁bậc	-11.464
#432;#7901;	-11.464
▁thác	-11.4641
Qu	-11.4644
▁Đừng	-11.4644
▁Quiet	-11.4644
▁sentence	-11.4644
▁winter	-11.4651
▁panic	-11.4686
Ã	-11.4688
▁Goddamn	-11.4688
▁permission	-11.4688
▁stomach	-11.4688
▁universe	-11.4688
▁progress	-11.4688
▁cheese	-11.4689
▁Sylar	-11.469
▁express	-11.4691
▁lưới	-11.4691
▁nhằ	-11.4697
▁pool	-11.4707
▁Nguy	-11.4712
▁Ragnar	-11.4737
▁Security	-11.4737
▁divorce	-11.4737
▁Leonard	-11.4737
▁Jamie	-11.4737
▁thỏ	-11.4738
▁Saint	-11.4739
▁tốt	-11.4741
▁chấn	-11.4747
▁nail	-11.475
▁Drive	-11.4765
▁exit	-11.4767
▁xả	-11.4782
▁Nicholas	-11.4786
▁Twenty	-11.4786
▁easily	-11.4786
▁lặp	-11.4786
▁occur	-11.4786
▁Dự	-11.4787
▁charm	-11.4788
▁handsome	-11.479
▁product	-11.4791
▁Đau	-11.4799
▁trúc	-11.4804
94	-11.4807
▁Ghi	-11.4819
▁cưỡng	-11.4835
▁uniform	-11.4835
▁vắng	-11.4835
▁foreign	-11.4835
▁Connor	-11.4837
▁2007	-11.4837
▁Starling	-11.4839
▁Ả	-11.484
▁Cánh	-11.4841
▁Princess	-11.4841
▁nọ	-11.4859
63	-11.487
▁rộn	-11.4876
▁India	-11.4876
▁Florida	-11.4885
▁advantage	-11.4885
▁Chọn	-11.4885
▁ngào	-11.4885
▁funeral	-11.4885
▁percent	-11.4887
▁email	-11.4888
34	-11.489
▁mọc	-11.4894
▁rẽ	-11.4897
▁mờ	-11.4932
▁surgery	-11.4934
▁revenge	-11.4934
▁disease	-11.4935
▁Canada	-11.4935
▁Jessica	-11.4935
ization	-11.4935
▁Chuyển	-11.4936
▁Power	-11.4938
▁Drink	-11.4938
▁phấn	-11.4939
▁hết	-11.4939
▁lấy	-11.4941
▁Moon	-11.4942
▁protection	-11.4958
▁Walk	-11.4969
▁Tess	-11.4975
▁Barbara	-11.4984
▁Moscow	-11.4984
▁rỗng	-11.4985
▁trưng	-11.4985
▁Believe	-11.4985
▁department	-11.4986
▁Thích	-11.4989
▁Riley	-11.4992
▁artist	-11.4997
▁cạo	-11.5002
▁director	-11.5006
▁range	-11.5021
▁ván	-11.5026
▁cạn	-11.5028
▁interrupt	-11.5035
▁monkey	-11.5035
servation	-11.5035
▁recently	-11.5035
▁sụp	-11.5035
▁firm	-11.5035
▁nerve	-11.5036
▁Senator	-11.5036
▁sugar	-11.5038
▁kênh	-11.5039
▁season	-11.5041
▁ngắt	-11.5042
▁tick	-11.508
ắt	-11.5081
▁Rebecca	-11.5085
▁electric	-11.5085
▁khớp	-11.5087
▁Dưới	-11.5088
▁thief	-11.509
▁flash	-11.5096
▁xíu	-11.51
▁woke	-11.5109
iếp	-11.513
Ú	-11.5136
▁Jersey	-11.5136
▁experiment	-11.5136
▁silver	-11.5136
▁crowd	-11.5136
▁distract	-11.5136
▁Betty	-11.5136
▁Hồ	-11.514
▁insist	-11.5149
okie	-11.5151
▁Benjamin	-11.5187
▁rảnh	-11.5187
▁affair	-11.5187
▁«	-11.5187
shot	-11.5194
▁reward	-11.5203
▁cast	-11.5204
{\*	-11.5209
▁Fair	-11.5217
▁effort	-11.5238
▁Gideon	-11.5238
▁Lizzy	-11.5238
▁nhịp	-11.5238
▁nắng	-11.5238
▁creep	-11.5238
▁hoạn	-11.5239
▁xế	-11.5239
▁Francisco	-11.5241
▁thiếp	-11.5241
▁sướng	-11.5253
▁Barr	-11.5267
wick	-11.5281
▁Monsieur	-11.529
▁including	-11.529
▁Alfred	-11.529
▁shift	-11.529
▁warrant	-11.529
▁»	-11.529
▁social	-11.5291
▁tuyển	-11.5293
▁hâm	-11.5305
▁Bước	-11.5307
▁fur	-11.5313
▁march	-11.5313
▁vở	-11.5321
point	-11.5331
▁include	-11.5342
▁mirror	-11.5342
▁Careful	-11.5342
▁knowledge	-11.5342
▁traffic	-11.5342
▁sharp	-11.5342
▁Kirk	-11.5346
erald	-11.5347
▁coward	-11.535
▁nương	-11.537
▁Hobb	-11.5378
▁dàn	-11.5378
▁exact	-11.5386
▁400	-11.5387
Ủ	-11.5394
▁Although	-11.5394
▁Nhiệm	-11.5394
▁cigarette	-11.5394
▁courage	-11.5394
▁title	-11.5395
▁darkness	-11.5398
▁2003	-11.54
▁Whil	-11.5405
▁râu	-11.5406
▁national	-11.5419
▁Var	-11.5421
▁discover	-11.5426
▁hoá	-11.5432
▁Apparently	-11.5446
▁nuclear	-11.5446
▁ocean	-11.5446
▁khúc	-11.5446
▁physical	-11.5446
▁gentleman	-11.5448
▁trữ	-11.545
▁kiệt	-11.5452
▁wide	-11.5476
▁dỗ	-11.5482
41	-11.5485
▁especially	-11.5499
▁Hỏa	-11.5499
▁Number	-11.5499
▁sheriff	-11.5499
▁Hotch	-11.5499
▁planned	-11.5499
▁Lydia	-11.55
▁DEA	-11.55
know	-11.5501
▁guide	-11.5501
▁thuế	-11.5506
51	-11.5508
▁Khả	-11.5518
human	-11.5521
▁arrive	-11.5526
▁mổ	-11.5527
▁Marshal	-11.5546
▁Palmer	-11.5552
▁Friend	-11.5552
▁Friday	-11.5552
▁champion	-11.5552
▁Cuddy	-11.5552
▁Also	-11.5554
▁princess	-11.5554
▁Marshall	-11.5557
▁phế	-11.5561
▁Pink	-11.5561
▁Dân	-11.5579
rdin	-11.5601
▁wipe	-11.5603
▁mớ	-11.5604
▁Department	-11.5605
▁Samuel	-11.5605
▁clever	-11.5605
▁reveal	-11.5605
ốt	-11.5607
▁gọn	-11.5607
▁Ellen	-11.5608
▁sexual	-11.5608
▁brand	-11.5609
▁biện	-11.5615
▁vong	-11.5619
▁xì	-11.5623
▁tấ	-11.5624
44	-11.5651
▁Avatar	-11.5658
▁Nghiêm	-11.5658
▁Lính	-11.5658
▁instruct	-11.5658
▁yöu	-11.5658
▁snake	-11.5658
▁Mộ	-11.5659
▁bắp	-11.5669
▁chuộc	-11.5673
58	-11.569
▁bể	-11.5699
26	-11.5702
Who	-11.5705
▁screen	-11.5712
▁yellow	-11.5712
▁Finally	-11.5712
▁memories	-11.5712
▁nhạy	-11.5712
▁Lucky	-11.5712
▁Davis	-11.5713
▁equal	-11.5714
▁crush	-11.5717
▁chiêu	-11.572
▁pump	-11.5721
▁Tưởng	-11.5724
▁voi	-11.5743
arian	-11.5757
▁Debbie	-11.5766
▁network	-11.5766
▁neighborhood	-11.5766
▁regard	-11.5766
▁Hôn	-11.5771
▁Đế	-11.5772
▁statement	-11.5773
▁grant	-11.5779
ồn	-11.578
iệu	-11.5801
▁Enjoy	-11.582
▁Lawrence	-11.582
▁diamond	-11.582
▁amount	-11.582
▁Japan	-11.5821
▁nightmare	-11.5821
▁#273;#227;	-11.5821
▁mất	-11.5826
▁Left	-11.5828
▁đắt	-11.583
59	-11.5852
▁$2	-11.5859
24	-11.586
▁Ngọ	-11.5868
▁Excellent	-11.5875
▁Grayson	-11.5875
▁ngụ	-11.5875
▁Daisy	-11.5875
▁blew	-11.5875
▁Percy	-11.5877
▁dược	-11.5886
▁thắt	-11.5888
▁Previously	-11.593
▁Bóng	-11.593
▁defense	-11.5931
▁describe	-11.5931
▁Món	-11.5938
▁locate	-11.594
▁Văn	-11.5946
▁bike	-11.5949
▁cancel	-11.5964
ENT	-11.5971
23	-11.5977
▁bố	-11.5977
▁regular	-11.5985
▁Thống	-11.5985
▁đứt	-11.5985
▁priest	-11.5985
▁hằng	-11.5989
▁wrap	-11.5991
▁gõ	-11.5995
▁ngập	-11.5996
▁Enterprise	-11.6041
▁Especially	-11.6041
▁frighten	-11.6041
▁babies	-11.6041
▁Elena	-11.6041
▁Hitler	-11.6041
▁Ollie	-11.6041
▁Tài	-11.6041
▁bớt	-11.6041
▁curious	-11.6042
ấn	-11.605
▁Merlin	-11.6051
▁former	-11.6055
▁chốt	-11.606
02	-11.607
▁Service	-11.6097
▁assistant	-11.6097
▁jealous	-11.6097
▁Khỏe	-11.6097
▁gậy	-11.6097
▁distance	-11.6097
▁ủy	-11.6097
▁multi	-11.6098
▁resist	-11.6098
▁Darcy	-11.6099
▁Viên	-11.6105
tiềm	-11.6108
56	-11.6149
Ố	-11.6153
▁guarantee	-11.6153
¿	-11.6153
▁potential	-11.6153
▁dancing	-11.6153
▁garden	-11.6153
▁produce	-11.6153
▁lonely	-11.6153
ượt	-11.6153
▁quấy	-11.6158
▁Medic	-11.6159
▁react	-11.6181
▁comfort	-11.6208
▁Michelle	-11.6209
▁elevator	-11.6209
▁insurance	-11.6209
▁jacket	-11.6209
▁illegal	-11.6209
▁license	-11.6209
▁Martha	-11.621
▁hước	-11.6218
▁Judy	-11.6219
▁invite	-11.6244
ầu	-11.6264
▁Otherwise	-11.6266
▁servant	-11.6266
▁stood	-11.6266
▁Cindy	-11.6266
▁habit	-11.6268
▁committed	-11.6269
▁Caroline	-11.627
▁stopping	-11.6275
▁Year	-11.6281
▁Xác	-11.6289
74	-11.6289
▁neighbor	-11.6323
ặc	-11.6323
ẩn	-11.6323
▁assault	-11.6323
▁micro	-11.6324
▁changing	-11.6324
▁knight	-11.6327
▁ngọc	-11.633
▁Thường	-11.6335
▁Eye	-11.6335
▁tự	-11.6336
huyến	-11.6347
▁Kind	-11.6355
ập	-11.6381
▁brilliant	-11.6381
▁pussy	-11.6381
▁flesh	-11.6381
▁Mạng	-11.6381
▁hoãn	-11.6381
▁Sherman	-11.6381
▁transport	-11.6383
▁2002	-11.6387
▁winner	-11.6388
▁stress	-11.639
▁wow	-11.6392
▁chiên	-11.6411
Vâng	-11.6416
52	-11.6431
▁GPS	-11.6439
▁Israel	-11.6439
▁Huynh	-11.6439
▁Tùy	-11.6439
▁Miami	-11.6439
▁pilot	-11.6439
▁bắt	-11.6443
▁toast	-11.647
▁đè	-11.6493
▁prince	-11.6494
#7901;	-11.6497
stitution	-11.6497
£	-11.6497
▁celebrate	-11.6497
▁Emperor	-11.6497
▁quỳ	-11.6499
▁winning	-11.65
ưởng	-11.6502
▁cheap	-11.6504
▁Đọc	-11.6505
▁460)}	-11.6555
▁Tokyo	-11.6555
▁occasion	-11.6555
▁Heaven	-11.6555
▁Robbie	-11.6555
▁Pablo	-11.6555
▁sneak	-11.6555
▁Promise	-11.6555
▁Hóa	-11.6555
▁vacation	-11.6555
▁bedroom	-11.6557
▁dawn	-11.6559
▁mood	-11.6567
▁confused	-11.6614
▁grandfather	-11.6614
▁positive	-11.6614
▁surrender	-11.6614
SPEAK	-11.6614
▁square	-11.6614
▁drown	-11.6614
▁chén	-11.6615
▁Sammy	-11.6619
▁Boris	-11.663
ficial	-11.6642
▁prepare	-11.6651
▁gặp	-11.6673
▁surveillance	-11.6673
▁vampire	-11.6673
▁Trình	-11.6673
▁Ronnie	-11.6673
▁Sophie	-11.6673
▁rumor	-11.6674
▁traitor	-11.6676
▁thuần	-11.6678
▁spring	-11.6679
worth	-11.6711
▁obvious	-11.6725
▁nhặt	-11.6733
▁recommend	-11.6733
▁Klaus	-11.6733
▁Grey	-11.6736
▁Spring	-11.6737
▁Push	-11.674
08	-11.6747
Comment	-11.6762
▁giặt	-11.6793
▁protocol	-11.6793
▁romantic	-11.6793
▁đoạt	-11.6793
▁Watson	-11.6793
▁Underwood	-11.6793
▁Court	-11.6795
▁favour	-11.6853
#237;	-11.6853
Ð	-11.6853
▁Joshua	-11.6853
▁khỏa	-11.6853
▁xăm	-11.6859
▁boring	-11.6859
▁Joffrey	-11.6914
▁ambulance	-11.6914
▁Richie	-11.6914
▁beneath	-11.6914
▁method	-11.6914
▁Penny	-11.6919
▁trunk	-11.6922
▁frog	-11.6942
▁violence	-11.6974
▁desperate	-11.6974
▁expensive	-11.6974
▁otherwise	-11.6974
▁giùm	-11.6975
▁zone	-11.6975
▁huỷ	-11.6975
▁Blake	-11.6979
▁joking	-11.7036
▁Brenda	-11.7036
▁chocolate	-11.7036
▁Hợp	-11.7036
▁balance	-11.7036
▁Isaac	-11.7036
▁Donald	-11.7037
ography	-11.7053
▁appointment	-11.7098
▁respond	-11.7098
▁Tỉnh	-11.7098
▁Neither	-11.7098
▁incident	-11.7098
▁garage	-11.7098
▁Stephen	-11.7098
Ì	-11.716
▁scientist	-11.716
▁technology	-11.716
▁xuống	-11.716
▁zero	-11.716
▁Foreman	-11.716
▁pardon	-11.7161
66	-11.7164
▁Brazil	-11.7222
▁explosion	-11.7222
▁cloud	-11.7222
▁precious	-11.7222
▁kiệm	-11.7222
▁honour	-11.7222
▁presence	-11.7222
▁Dutch	-11.7223
▁trộn	-11.7223
▁Short	-11.7225
▁đường	-11.7226
▁triều	-11.7227
▁flee	-11.7228
ologist	-11.723
foot	-11.7266
▁August	-11.7285
▁behavior	-11.7285
▁excellent	-11.7285
▁exciting	-11.7285
▁rưỡi	-11.7285
▁Dịch	-11.7285
▁Mạnh	-11.7285
▁cừu	-11.7285
▁remote	-11.7285
▁Dennis	-11.7285
▁twist	-11.7285
▁chamber	-11.7285
▁Arab	-11.7292
▁terror	-11.7343
▁associate	-11.7348
▁channel	-11.7348
▁Lãnh	-11.7348
▁Trắng	-11.7348
▁wagon	-11.7348
▁xoá	-11.7348
▁insult	-11.7352
54	-11.7353
Hãy	-11.739
power	-11.7394
▁solution	-11.7412
▁Tòa	-11.7412
▁lỏng	-11.7412
▁sample	-11.7412
▁swing	-11.7413
▁Opera	-11.7413
▁muội	-11.7415
▁Nhóc	-11.7416
▁Carr	-11.7458
▁determine	-11.7476
▁According	-11.7476
▁Beautiful	-11.7476
▁intelligence	-11.7476
▁satellite	-11.7476
▁material	-11.7476
▁Gửi	-11.7476
▁profile	-11.7476
▁thuỷ	-11.7478
▁failure	-11.7478
▁expose	-11.748
Chào	-11.7518
5,000	-11.7519
▁Lamb	-11.7531
▁function	-11.7541
▁rifle	-11.7541
▁Oscar	-11.7541
▁Điểm	-11.7541
▁2008	-11.7544
71	-11.7557
▁Change	-11.7598
▁Colombia	-11.7606
▁Nghỉ	-11.7606
▁century	-11.7606
▁Congress	-11.7606
▁sánh	-11.7606
▁Terri	-11.7606
ừa	-11.7608
▁Summer	-11.7609
▁detect	-11.767
▁Rượu	-11.7671
▁Unfortunately	-11.7671
▁succeed	-11.7671
▁tẩy	-11.7671
▁Định	-11.7671
▁announce	-11.7671
▁đậy	-11.7671
▁intention	-11.7671
▁Bryan	-11.7671
▁ủi	-11.7671
▁improve	-11.7671
▁Nhận	-11.7678
▁dollar	-11.7698
Thank	-11.7716
Ă	-11.7735
▁Beckett	-11.7737
▁Society	-11.7737
▁custody	-11.7737
▁helicopter	-11.7737
▁hãnh	-11.7737
▁Garcia	-11.7737
▁Hứa	-11.7737
▁admire	-11.7737
▁Charley	-11.7737
▁Derek	-11.7737
▁surface	-11.7737
▁Barnes	-11.7737
▁Monday	-11.7739
Cậu	-11.7781
▁unfortunate	-11.7803
▁Harvard	-11.7803
▁Vanessa	-11.7803
▁champagne	-11.7803
▁fantastic	-11.7803
▁newspaper	-11.7803
▁smoking	-11.7803
▁understood	-11.7803
▁unusual	-11.7803
▁đẳng	-11.7803
▁ignore	-11.7803
▁muscle	-11.7803
▁ashamed	-11.7803
▁squad	-11.7803
▁stairs	-11.7803
▁súc	-11.7803
▁chém	-11.7803
▁Rosie	-11.7804
▁Bird	-11.7809
#7919;	-11.787
▁Saturday	-11.787
▁adventure	-11.787
▁grateful	-11.787
▁gươm	-11.787
▁Mickey	-11.787
▁virgin	-11.787
▁period	-11.787
▁Nhóm	-11.787
▁Slade	-11.787
▁joy	-11.787
▁mystery	-11.7871
▁adult	-11.7871
▁Freeze	-11.7871
▁Wanna	-11.7872
▁nuốt	-11.7872
▁Brooklyn	-11.7937
▁Mountain	-11.7937
▁Hector	-11.7937
▁Frodo	-11.7937
▁Đoán	-11.7937
▁Bonnie	-11.7937
▁kèn	-11.7937
▁throne	-11.7937
▁crown	-11.7937
▁porn	-11.7943
77	-11.7959
Ấ	-11.8004
#7883;	-11.8004
▁Family	-11.8004
▁Stefan	-11.8004
▁Virginia	-11.8004
▁chằm	-11.8004
▁facility	-11.8004
▁rưởi	-11.8004
▁động	-11.8004
▁proceed	-11.8004
▁Bauer	-11.8005
▁Church	-11.8007
▁Attention	-11.8072
▁Thẩm	-11.8072
▁application	-11.8072
▁identity	-11.8072
▁ordinary	-11.8072
▁Monroe	-11.8072
▁Flint	-11.8073
▁Cathy	-11.8073
▁fancy	-11.8075
▁kế	-11.8077
▁Egypt	-11.8141
▁Gabriel	-11.8141
▁Understand	-11.8141
▁community	-11.8141
▁Spanish	-11.8141
▁Mùi	-11.8141
▁smash	-11.8141
▁sudden	-11.8202
▁Thursday	-11.821
▁alcohol	-11.821
▁delicious	-11.821
▁monitor	-11.821
▁passenger	-11.821
▁valuable	-11.821
▁Quyền	-11.821
▁midnight	-11.821
▁false	-11.821
▁ếch	-11.821
▁prize	-11.821
▁nasty	-11.821
▁Italian	-11.821
▁Pierre	-11.821
▁Word	-11.8211
▁Ellis	-11.8212
girl	-11.8257
ẵ	-11.8279
▁attorney	-11.8279
▁breast	-11.8279
▁practical	-11.8279
▁silence	-11.8279
▁advise	-11.8279
▁búp	-11.8279
▁glory	-11.8279
▁Vết	-11.8279
Nhưng	-11.8327
Okay	-11.8327
#7921;	-11.8349
▁Einstein	-11.8349
▁equipment	-11.8349
▁League	-11.8349
▁generation	-11.8349
▁Small	-11.835
▁brown	-11.835
▁Abraham	-11.842
▁Instead	-11.842
▁Jennifer	-11.842
▁tẩu	-11.842
▁drove	-11.842
▁recall	-11.842
▁football	-11.8421
▁Lorenzo	-11.8491
▁eventually	-11.8491
▁judgment	-11.8491
▁shield	-11.8491
▁similar	-11.8491
▁Mùa	-11.8491
▁rạp	-11.8491
▁skull	-11.8491
▁shelter	-11.8491
▁drill	-11.8491
▁royal	-11.8491
apua	-11.8512
Â	-11.8562
▁counsel	-11.8562
▁apparently	-11.8562
▁journal	-11.8562
▁volunteer	-11.8562
▁whiskey	-11.8562
▁tiễn	-11.8562
▁Answer	-11.8562
▁propose	-11.8563
▁Buồn	-11.8572
▁số	-11.861
▁April	-11.8634
▁Elliot	-11.8634
▁Falcone	-11.8634
▁Mexican	-11.8634
▁School	-11.8634
▁corpse	-11.8634
▁Sleep	-11.8634
▁Zoom	-11.8634
▁Casey	-11.8634
▁shove	-11.8635
▁whip	-11.8646
onomic	-11.8653
48	-11.8659
▁Hơ	-11.8684
▁professor	-11.8706
▁website	-11.8706
▁Protect	-11.8706
▁closing	-11.8706
▁cưỡi	-11.8706
▁Bernard	-11.8706
▁pattern	-11.8706
▁Nâng	-11.8706
▁Becky	-11.8707
▁Horse	-11.8707
▁Winston	-11.8709
▁boom	-11.8713
▁rig	-11.8763
▁vấ	-11.8774
É	-11.8779
▁Manhattan	-11.8779
▁Orleans	-11.8779
▁popular	-11.8779
▁scratch	-11.8779
▁swallow	-11.8779
▁pride	-11.8779
▁Đùa	-11.8779
▁xộn	-11.8779
▁Douglas	-11.878
▁steel	-11.878
▁organization	-11.878
▁Cecil	-11.8783
▁Director	-11.8853
▁Obviously	-11.8853
▁holiday	-11.8853
▁impressive	-11.8853
▁kidnapped	-11.8853
▁library	-11.8853
▁negative	-11.8853
▁Houston	-11.8853
▁chĩa	-11.8853
▁symbol	-11.8853
▁coast	-11.8856
▁vạn	-11.8859
▁Hãn	-11.8872
Where	-11.8905
▁Scotland	-11.8927
▁coincidence	-11.8927
▁crawl	-11.8927
▁environment	-11.8927
▁escort	-11.8927
▁recruit	-11.8927
▁Science	-11.8927
▁accomplish	-11.8927
▁Trevor	-11.8927
▁Hudson	-11.8927
▁Daryl	-11.8927
▁Honor	-11.8927
iêng	-11.8934
count	-11.8959
▁Command	-11.8988
▁Florence	-11.9002
▁Inspector	-11.9002
▁garbage	-11.9002
▁ngẫu	-11.9002
▁response	-11.9002
▁quãng	-11.9002
▁article	-11.9002
▁Chloe	-11.9002
▁jewel	-11.9002
▁snap	-11.9035
▁Republic	-11.9077
▁entrance	-11.9077
▁smooth	-11.9077
Ế	-11.9153
+	-11.962
Ù	-11.97
Í	-11.9943
Ừ	-12.0171
ç	-12.0802
ō	-12.1168
^	-12.1261
~	-12.1622
Ê	-12.172
Ñ	-12.1841
ä	-12.1841
ằ	-12.2098
[	-12.254
¥	-12.267
­	-12.2779
Ơ	-12.309
Ü	-12.3226
¶	-12.3319
¢	-12.3694
Ứ	-12.3694
§	-12.3937
ß	-12.3937
Ồ	-12.4163
Ờ	-12.4289
	-12.457
Ộ	-12.4701
Ò	-12.497
Τ	-12.497
Ả	-12.5223
Ớ	-12.5386
Ệ	-12.5529
Ậ	-12.5674
Ổ	-12.5821
>	-12.6276
ë	-12.6432
×	-12.6432
ï	-12.6752
Ở	-12.723
ǵ	-12.7252
Ç	-12.7779
Ý	-12.7938
š	-12.8723
Ë	-12.8923
我	-12.9127
©	-12.9548
Ợ	-12.9765
Ị	-12.9988
你	-12.9988
<	-13.0447
е	-13.0685
’	-13.0929
č	-13.1436
Ä	-13.1699
&	-13.2222
ř	-13.2827
的	-13.2827
了	-13.313
不	-13.313
是	-13.3765
一	-13.3765
Ọ	-13.4098
	-13.4098
Ể	-13.4098
а	-13.4098
·	-13.4443
Þ	-13.4443
о	-13.4443
Ề	-13.48
æ	-13.48
啊	-13.5171
±	-13.5171
с	-13.5555
Ụ	-13.5955
н	-13.6807
ā	-13.7261
и	-13.7737
å	-13.8237
Ử	-13.8237
就	-13.8237
Ữ	-13.8237
ø	-13.8764
р	-13.8764
і	-13.9319
Ỏ	-13.9319
Ự	-13.9319
й	-13.9908
Ï	-13.9908
Κ	-13.9908
到	-13.9908
û	-14.0532
他	-14.0532
ć	-14.0533
Ặ	-14.0533
È	-14.0533
î	-14.1199
Ẹ	-14.1199
Ỉ	-14.1199
Ỹ	-14.1199
ı	-14.1199
Β	-14.1199
這	-14.1199
Š	-14.1913
Æ	-14.1913
Ĩ	-14.2683
麼	-14.2683
Ũ	-14.2683
ѕ	-14.3516
Υ	-14.3516
л	-14.3516
人	-14.4425
®	-14.4425
Ẻ	-14.4425
Ỗ	-14.4425
•	-14.4425
要	-14.4425
€	-14.4425
у	-14.5425
ḥ	-14.5425
可	-14.5425
ī	-14.5425
м	-14.5425
個	-14.5425
來	-14.5425
有	-14.5425
♫	-14.6514
在	-14.6536
家	-14.6536
都	-14.6536
Ẽ	-14.6536
好	-14.6536
	-14.6536
τ	-14.6536
球	-14.6536
以	-14.6536
打	-14.6536
ầ	-14.7375
の	-14.7786
‘	-14.7786
в	-14.7786
к	-14.7786
Ễ	-14.7786
像	-14.7786
去	-14.7786
嗎	-14.7786
大	-14.7786
이	-14.7786
Ε	-14.7786
加	-14.7786
方	-14.7786
那	-14.7786
¬	-14.9215
Å	-14.9215
、	-14.9215
王	-14.9215
下	-14.9215
對	-14.9215
台	-15.0881
跟	-15.0881
ž	-15.0881
	-15.0881
	-15.0881
ł	-15.0881
μ	-15.0881
Ẫ	-15.0881
灣	-15.0881
看	-15.0881
藍	-15.0881
集	-15.0881
鵲	-15.0881
會	-15.0881
比	-15.0881
還	-15.0881
ş	-15.0881
樣	-15.0881
空	-15.0881
沒	-15.0882
能	-15.0882
「	-15.0882
ン	-15.0882
開	-15.2881
ц	-15.2881
找	-15.2881
	-15.2881
“	-15.2881
太	-15.2881
真	-15.2881
İ	-15.2881
	-15.2881
т	-15.2881
Ỷ	-15.2881
功	-15.2881
嘛	-15.2881
成	-15.2881
手	-15.2881
œ	-15.2881
ν	-15.2881
得	-15.2881
裡	-15.2881
長	-15.2881
Ằ	-15.2881
」	-15.2881
字	-15.2881
學	-15.2881
帶	-15.2881
錢	-15.2881
小	-15.2882
世	-15.2882
再	-15.2882
很	-15.2882
萬	-15.2882
天	-15.2882
心	-15.2882
隊	-15.2882
»	-15.5359
本	-15.5381
研	-15.5381
÷	-15.5381
場	-15.5381
Х	-15.5381
光	-15.5381
民	-15.5381
當	-15.5381
合	-15.5381
點	-15.5381
	-15.5381
þ	-15.5381
ğ	-15.5381
ň	-15.5381
Ō	-15.5381
ţ	-15.5381
Ǵ	-15.5381
γ	-15.5381
ш	-15.5381
ы	-15.5381
”	-15.5381
》	-15.5381
事	-15.5381
代	-15.5381
史	-15.5381
吧	-15.5381
員	-15.5381
喂	-15.5381
媽	-15.5381
安	-15.5381
想	-15.5381
戰	-15.5381
時	-15.5381
校	-15.5381
老	-15.5381
賽	-15.5381
름	-15.5381
요	-15.5381
Ẵ	-15.5381
意	-15.5381
格	-15.5381
生	-15.5381
婆	-15.5382
子	-15.5382
明	-15.5382
物	-15.5382
說	-15.5382
뭐	-15.5382
예	-15.5382
‐	-15.5382
把	-15.5382
ー	-15.5382
ジ	-15.5382
武	-15.8715
理	-15.8715
全	-15.8715
也	-15.8715
永	-15.8715
賺	-15.8715
¤	-15.8715
Ν	-15.8715
甲	-15.8715
ь	-15.8715
	-15.8715
	-15.8715
Õ	-15.8715
ū	-15.8715
х	-15.8715
Ỡ	-15.8715
Ỳ	-15.8715
作	-15.8715
啦	-15.8715
喔	-15.8715
噯	-15.8715
多	-15.8715
敗	-15.8715
極	-15.8715
知	-15.8715
組	-15.8715
給	-15.8715
舊	-15.8715
試	-15.8715
誰	-15.8715
讓	-15.8715
跳	-15.8715
風	-15.8715
≥	-15.8715
撐	-15.8715
上	-15.8715
前	-15.8715
道	-15.8715
П	-15.8715
中	-15.8715
分	-15.8715
水	-15.8715
籃	-15.8715
拳	-15.8715
面	-15.8715
神	-15.8715
«	-16.3693
う	-16.3714
き	-16.3714
屋	-16.3714
日	-16.3714
ク	-16.3714
コ	-16.3714
シ	-16.3714
ョ	-16.3714
レ	-16.3714
書	-16.3714
沈	-16.3714
究	-16.3714
絵	-16.3714
葉	-16.3714
Д	-16.3715
ッ	-16.3715
ハ	-16.3715
マ	-16.3715
哥	-16.3715
士	-16.3715
実	-16.3715
祜	-16.3715
禄	-16.3715
谱	-16.3715
钮	-16.3715
К	-16.3715
С	-16.3715
з	-16.3715
„	-16.3715
位	-16.3715
军	-16.3715
半	-16.3715
同	-16.3715
四	-16.3715
国	-16.3715
娘	-16.3715
幾	-16.3715
爹	-16.3715
祥	-16.3715
而	-16.3715
莫	-16.3715
赵	-16.3715
阀	-16.3715
骨	-16.3715
Č	-16.3715
ħ	-16.3715
Ř	-16.3715
Ţ	-16.3715
差	-16.3715
影	-16.3715
振	-16.3715
搞	-16.3715
李	-16.3715
無	-16.3715
福	-16.3715
莉	-16.3715
選	-16.3715
	-16.3715
	-16.3715
	-16.3715
¦	-16.3715
Ā	-16.3715
ą	-16.3715
ė	-16.3715
ę	-16.3715
ť	-16.3715
ʻ	-16.3715
ʾ	-16.3715
ι	-16.3715
Б	-16.3715
В	-16.3715
И	-16.3715
Р	-16.3715
Ф	-16.3715
Ш	-16.3715
Э	-16.3715
д	-16.3715
я	-16.3715
᧯	-16.3715
←	-16.3715
−	-16.3715
々	-16.3715
ャ	-16.3715
三	-16.3715
丹	-16.3715
僑	-16.3715
克	-16.3715
兒	-16.3715
写	-16.3715
冠	-16.3715
冰	-16.3715
出	-16.3715
別	-16.3715
利	-16.3715
助	-16.3715
動	-16.3715
勝	-16.3715
千	-16.3715
吃	-16.3715
呢	-16.3715
呼	-16.3715
哪	-16.3715
喬	-16.3715
國	-16.3715
團	-16.3715
地	-16.3715
妇	-16.3715
將	-16.3715
幹	-16.3715
庆	-16.3715
強	-16.3715
快	-16.3715
怎	-16.3715
情	-16.3715
愛	-16.3715
所	-16.3715
拿	-16.3715
文	-16.3715
新	-16.3715
旅	-16.3715
木	-16.3715
松	-16.3715
柯	-16.3715
棄	-16.3715
森	-16.3715
機	-16.3715
歴	-16.3715
派	-16.3715
源	-16.3715
滾	-16.3715
炎	-16.3715
照	-16.3715
熊	-16.3715
疆	-16.3715
相	-16.3715
竹	-16.3715
系	-16.3715
結	-16.3715
編	-16.3715
羅	-16.3715
群	-16.3715
聽	-16.3715
行	-16.3715
見	-16.3715
言	-16.3715
謝	-16.3715
變	-16.3715
谈	-16.3715
貴	-16.3715
贤	-16.3715
走	-16.3715
近	-16.3715
邊	-16.3715
部	-16.3715
釋	-16.3715
重	-16.3715
铎	-16.3715
陈	-16.3715
院	-16.3715
電	-16.3715
非	-16.3715
鬥	-16.3715
鬼	-16.3715
Ľ	-16.3715
㮥	-16.3715
佐	-16.3715
刻	-16.3715
叫	-16.3715
截	-16.3715
段	-16.3715
畫	-16.3715
算	-16.3715
紅	-16.3715
義	-16.3715
過	-16.3715
ア	-16.3715
オ	-16.3715
ュ	-16.3715
ル	-16.3715
淌	-16.3715
回	-16.3715
₫	-16.3715
ゴ	-16.3715
ビ	-16.3715
プ	-16.3715
リ	-16.3715
幕	-16.3715
戦	-16.3715
ス	-16.3715
セ	-16.3715
資	-17.3635
西	-17.3636
禮	-17.3637
磋	-17.3638
東	-17.3639
朋	-17.364
提	-17.3641
思	-17.3642
忘	-17.3643
定	-17.3644
委	-17.3645
咱	-17.3646
友	-17.3647
原	-17.3648
勁	-17.3649
切	-17.365
典	-17.3651
值	-17.3652
候	-17.3653
件	-17.3654
久	-17.3655
《	-17.3656
☺	-17.3657
‚	-17.3658
ḱ	-17.3659
Ο	-17.366
靜	-17.3661
碰	-17.3662
決	-17.3663
標	-17.3664
最	-17.3665
→	-17.3666
Ö	-17.3667
Î	-17.3668
	-17.3669
阿	-17.367
父	-17.3671
為	-17.3672
師	-17.3673
夫	-17.3674
做	-17.3675
Ẳ	-17.3676
ḷ	-17.3677
ф	-17.3678
Ş	-17.3679
Ď	-17.368
	-17.3681
簽	-17.3682
油	-17.3683
名	-17.3684
̈	-17.3685
蕭	-17.3686
後	-17.3687
嵐	-17.3688
г	-17.3689
М	-17.369
	-17.3691
傑	-17.3692
Ž	-17.3693
ð	-17.3694
什	-17.3694
ń	-17.3695
們	-17.3696
ḿ	-17.3697
†	-17.3698
Α	-17.3699
ě	-17.37
Ầ	-17.3701
Η	-17.3702
Ắ	-17.3703
Ẩ	-17.3704
─	-17.3705
⁄	-17.3706
Μ	-17.3707
‭	-17.3708
Û	-17.3709
̄	-17.371
Ạ	-17.3711
ẳ	-17.3712
ẩ	-17.3713
其	-17.3714
實	-17.3714
ẫ	-17.3714
吹	-17.3715
哄	-17.3715
女	-17.3715
彈	-17.3715
識	-17.3715
又	-17.3715
及	-17.3715
只	-17.3715
垂	-17.3715
寡	-17.3715
屏	-17.3715
年	-17.3715
待	-17.3715
挺	-17.3715
於	-17.3715
死	-17.3715
涉	-17.3715
漂	-17.3715
片	-17.3715
等	-17.3715
至	-17.3715
該	-17.3715
響	-17.3715
贏	-17.3715
	-17.3715
	-17.3715
	-17.3715
ÿ	-17.3715
Ś	-17.3715
Ÿ	-17.3715
̧	-17.3715
Ζ	-17.3715
Ι	-17.3715
Ω	-17.3715
δ	-17.3715
λ	-17.3715
Ѕ	-17.3715
Г	-17.3715
Е	-17.3715
О	-17.3715
ֶ	-17.3715
Ḿ	-17.3715
ṇ	-17.3715
Ṣ	-17.3715
ṣ	-17.3715
ṿ	-17.3715
Ỵ	-17.3715
≤	-17.3715
⊲	-17.3715
♡	-17.3715
♥	-17.3715
・	-17.3715
乾	-17.3715
亂	-17.3715
交	-17.3715
亮	-17.3715
仇	-17.3715
任	-17.3715
份	-17.3715
会	-17.3715
伸	-17.3715
住	-17.3715
何	-17.3715
信	-17.3715
倦	-17.3715
倫	-17.3715
傳	-17.3715
億	-17.3715
剩	-17.3715
勾	-17.3715
參	-17.3715
句	-17.3715
另	-17.3715
品	-17.3715
哇	-17.3715
哈	-17.3715
問	-17.3715
囉	-17.3715
坐	-17.3715
報	-17.3715
外	-17.3715
夥	-17.3715
失	-17.3715
始	-17.3715
姐	-17.3715
媒	-17.3715
守	-17.3715
尋	-17.3715
尤	-17.3715
展	-17.3715
帥	-17.3715
幫	-17.3715
張	-17.3715
微	-17.3715
态	-17.3715
悶	-17.3715
慌	-17.3715
慹	-17.3715
才	-17.3715
扎	-17.3715
技	-17.3715
投	-17.3715
抖	-17.3715
拋	-17.3715
拍	-17.3715
招	-17.3715
掙	-17.3715
掛	-17.3715
接	-17.3715
推	-17.3715
搖	-17.3715
擋	-17.3715
改	-17.3715
散	-17.3715
敦	-17.3715
星	-17.3715
暗	-17.3715
月	-17.3715
服	-17.3715
望	-17.3715
杯	-17.3715
楚	-17.3715
構	-17.3715
樹	-17.3715
次	-17.3715
歌	-17.3715
毒	-17.3715
氣	-17.3715
求	-17.3715
江	-17.3715
沖	-17.3715
法	-17.3715
涯	-17.3715
涼	-17.3715
淇	-17.3715
淋	-17.3715
清	-17.3715
渾	-17.3715
湖	-17.3715
漢	-17.3715
灌	-17.3715
火	-17.3715
然	-17.3715
熟	-17.3715
燃	-17.3715
燒	-17.3715
班	-17.3715
甩	-17.3715
留	-17.3715
畢	-17.3715
百	-17.3715
瞞	-17.3715
破	-17.3715
礙	-17.3715
秒	-17.3715
稍	-17.3715
穿	-17.3715
竿	-17.3715
符	-17.3715
筆	-17.3715
精	-17.3715
絕	-17.3715
練	-17.3715
耶	-17.3715
联	-17.3715
聰	-17.3715
肌	-17.3715
腐	-17.3715
腳	-17.3715
膚	-17.3715
荒	-17.3715
葬	-17.3715
薑	-17.3715
號	-17.3715
衝	-17.3715
衣	-17.3715
裝	-17.3715
視	-17.3715
親	-17.3715
覺	-17.3715
記	-17.3715
話	-17.3715
語	-17.3715
豆	-17.3715
豪	-17.3715
賤	-17.3715
身	-17.3715
較	-17.3715
輕	-17.3715
輸	-17.3715
追	-17.3715
退	-17.3715
送	-17.3715
遇	-17.3715
運	-17.3715
違	-17.3715
遮	-17.3715
采	-17.3715
鉛	-17.3715
鍵	-17.3715
鐵	-17.3715
關	-17.3715
防	-17.3715
陪	-17.3715
障	-17.3715
離	-17.3715
需	-17.3715
霜	-17.3715
頭	-17.3715
顫	-17.3715
馬	-17.3715
駛	-17.3715
騙	-17.3715
體	-17.3715
丟	-17.3715
嬲	-17.3715
感	-17.3715
頂	-17.3715
但	-17.3715
底	-17.3715
德	-17.3715
管	-17.3715
適	-17.3715
ч	-17.3715
五	-17.3715
傘	-17.3715
免	-17.3715
吸	-17.3715
员	-17.3715
容	-17.3715
己	-17.3715
引	-17.3715
怨	-17.3715
恩	-17.3715
憶	-17.3715
批	-17.3715
攔	-17.3715
歹	-17.3715
汉	-17.3715
由	-17.3715
第	-17.3715
紙	-17.3715
經	-17.3715
請	-17.3715
语	-17.3715
起	-17.3715
辭	-17.3715
間	-17.3715
阻	-17.3715
ặ	-17.3715
飛	-17.3715
